<pad>	0
<s>	0
</s>	0
<unk>	0
,	-2.66682
.	-3.27632
s	-3.53265
▁the	-3.94013
▁I	-3.94944
▁and	-4.27227
▁to	-4.29239
▁of	-4.35424
▁a	-4.44324
▁you	-4.56107
'	-4.56854
▁my	-4.69457
?	-4.7203
▁in	-4.73792
;	-4.88446
▁is	-4.94509
▁that	-4.95544
d	-4.96966
▁me	-4.9733
▁not	-4.9735
!	-5.0784
▁be	-5.10171
:	-5.1245
▁And	-5.14141
▁it	-5.16473
ed	-5.20839
▁with	-5.23027
▁	-5.23033
▁your	-5.2335
▁for	-5.27235
▁his	-5.27701
’	-5.27712
ing	-5.33311
▁have	-5.36533
▁this	-5.36935
▁he	-5.37021
▁him	-5.45496
▁will	-5.53661
▁thou	-5.55428
▁so	-5.6222
t	-5.62225
▁as	-5.67395
▁her	-5.75361
er	-5.76164
▁do	-5.78335
▁thy	-5.79376
▁but	-5.80541
▁The	-5.81971
▁all	-5.85191
-	-5.85932
ll	-5.90807
▁thee	-5.92724
▁shall	-5.92813
▁are	-5.94645
▁we	-5.99682
st	-6.00769
▁no	-6.01175
▁To	-6.01242
▁by	-6.01253
ly	-6.01334
▁on	-6.01947
p	-6.04378
▁our	-6.05116
y	-6.06833
r	-6.08573
n	-6.09433
▁That	-6.09674
e	-6.11829
▁But	-6.16797
▁A	-6.17147
▁what	-6.20921
▁good	-6.22635
▁What	-6.23323
▁from	-6.25843
▁'	-6.27285
▁lord	-6.27403
▁am	-6.28206
▁love	-6.29642
▁at	-6.29934
—	-6.30841
▁more	-6.32569
▁was	-6.34208
▁would	-6.34579
▁man	-6.34582
▁she	-6.35721
▁now	-6.3723
▁O	-6.39634
▁them	-6.41833
▁their	-6.42923
▁sir	-6.44325
▁they	-6.45032
▁if	-6.46704
▁know	-6.49408
▁or	-6.49612
▁For	-6.50694
▁here	-6.53239
▁us	-6.55057
▁well	-6.56081
▁say	-6.56274
▁come	-6.57437
▁hath	-6.57496
▁like	-6.5823
▁one	-6.60548
▁You	-6.61812
▁an	-6.6271
▁He	-6.62898
▁make	-6.63284
re	-6.63609
▁My	-6.6363
▁If	-6.65446
m	-6.65628
l	-6.65905
▁there	-6.66214
▁see	-6.67866
▁than	-6.68035
▁then	-6.6889
▁may	-6.68973
▁should	-6.69165
▁upon	-6.71637
▁let	-6.71949
a	-6.72441
▁must	-6.72491
▁which	-6.73004
▁did	-6.73384
▁were	-6.74569
b	-6.75219
▁out	-6.7887
▁go	-6.81539
▁had	-6.816
▁As	-6.81925
o	-6.82236
▁such	-6.82936
▁when	-6.86947
▁too	-6.88094
▁king	-6.88175
▁Why	-6.9224
▁yet	-6.9374
▁can	-6.94269
c	-6.96406
▁How	-6.96903
▁In	-6.97105
▁think	-6.97143
▁speak	-6.97225
▁some	-6.98159
▁’	-6.98411
▁mine	-6.98417
▁up	-6.98581
▁take	-6.98713
▁heart	-6.98803
▁time	-6.98869
▁these	-6.98895
▁So	-6.98935
es	-6.99036
g	-6.9905
▁how	-7.00512
▁father	-7.00666
▁give	-7.00712
en	-7.00797
▁This	-7.01827
▁No	-7.02564
le	-7.04407
▁o	-7.06112
▁most	-7.07654
▁much	-7.07808
al	-7.07964
▁un	-7.09465
▁tell	-7.09467
I	-7.12024
f	-7.12307
▁We	-7.13844
in	-7.14321
ar	-7.1489
▁Who	-7.15224
▁“	-7.15852
▁never	-7.16289
▁With	-7.1636
on	-7.16449
▁Thou	-7.16663
▁men	-7.16871
▁hand	-7.17356
▁Of	-7.17516
▁Come	-7.18493
▁life	-7.19541
▁Be	-7.19618
▁It	-7.19774
▁death	-7.19774
▁art	-7.20395
▁Let	-7.20407
▁hear	-7.2054
w	-7.22089
th	-7.22611
▁fair	-7.24522
▁great	-7.24858
or	-7.25285
▁Which	-7.256
h	-7.27419
i	-7.27797
▁doth	-7.28324
tis	-7.28896
And	-7.30137
▁own	-7.31027
▁day	-7.3129
est	-7.31639
▁true	-7.32059
▁When	-7.32111
▁where	-7.32126
▁sweet	-7.33623
▁By	-7.34022
▁made	-7.34395
▁God	-7.34839
▁Now	-7.35615
▁very	-7.36694
u	-7.37311
▁night	-7.38136
▁any	-7.38149
▁S	-7.38401
▁again	-7.38907
▁name	-7.39039
▁fear	-7.39416
se	-7.39715
▁cannot	-7.40011
k	-7.40188
▁world	-7.42127
▁been	-7.44068
▁Sir	-7.44481
an	-7.44971
▁noble	-7.45075
▁leave	-7.45625
it	-7.45809
Tis	-7.45947
▁Ay	-7.46016
▁eyes	-7.46179
▁away	-7.46677
▁There	-7.47086
▁done	-7.47563
▁Where	-7.47695
▁blood	-7.47969
▁re	-7.48022
▁look	-7.48386
ness	-7.49089
▁Do	-7.49227
▁brother	-7.49401
ion	-7.49785
▁way	-7.50892
▁son	-7.52503
▁Then	-7.53411
▁Or	-7.53852
ur	-7.54615
▁other	-7.54992
▁part	-7.55948
▁down	-7.57079
▁heaven	-7.57582
▁nor	-7.57639
▁old	-7.57704
at	-7.58283
▁Here	-7.58759
▁thus	-7.59134
èd	-7.59357
▁before	-7.60171
▁who	-7.60186
▁Your	-7.60463
▁could	-7.61496
▁better	-7.61654
▁call	-7.61887
▁th	-7.62386
▁Well	-7.62989
▁pray	-7.63075
▁lady	-7.63087
▁ever	-7.63178
▁Go	-7.63335
▁poor	-7.63982
▁bear	-7.64209
▁master	-7.64456
▁live	-7.64838
▁Lord	-7.65047
ch	-7.65185
.—	-7.6529
▁die	-7.65293
▁hast	-7.66268
▁find	-7.66667
▁keep	-7.66773
▁grace	-7.67408
▁comes	-7.6857
▁into	-7.68571
A	-7.68752
▁nothing	-7.68894
▁myself	-7.70019
ation	-7.71286
▁might	-7.71312
▁both	-7.71959
▁many	-7.7207
▁two	-7.72119
▁being	-7.73157
▁show	-7.73512
▁She	-7.7389
▁head	-7.74179
▁His	-7.74473
▁word	-7.74531
as	-7.75035
▁Good	-7.75119
▁dead	-7.75637
▁Nay	-7.75683
▁honour	-7.76227
▁stand	-7.76355
▁put	-7.77741
ful	-7.78001
▁still	-7.78503
▁every	-7.78566
▁de	-7.78959
to	-7.79604
us	-7.79958
▁daughter	-7.80383
▁little	-7.81005
▁wife	-7.81031
less	-7.81294
▁those	-7.83803
▁face	-7.83892
▁first	-7.84006
▁place	-7.84057
▁eye	-7.84067
▁long	-7.84222
▁soul	-7.84374
▁house	-7.84731
▁They	-7.85372
ic	-7.86341
ent	-7.87161
▁c	-7.87395
▁dear	-7.87555
▁friends	-7.87887
▁set	-7.88023
▁gone	-7.88345
▁Not	-7.88578
▁bring	-7.88893
▁off	-7.89197
ers	-7.8922
▁answer	-7.89371
▁best	-7.89446
▁F	-7.89587
▁against	-7.89651
▁young	-7.89717
▁mind	-7.90993
To	-7.91074
▁hope	-7.9123
▁friend	-7.91351
ant	-7.91368
▁end	-7.91956
il	-7.92029
▁himself	-7.92166
em	-7.9234
▁mother	-7.9264
▁thine	-7.92665
am	-7.9269
ous	-7.92734
▁tongue	-7.93045
▁none	-7.94248
▁till	-7.94321
▁woman	-7.94345
▁Will	-7.94392
▁thing	-7.94454
v	-7.95022
ce	-7.951
able	-7.95704
▁stay	-7.95806
▁Caesar	-7.96031
▁i	-7.96273
▁peace	-7.96495
The	-7.96613
ate	-7.97375
ir	-7.97833
▁though	-7.98149
et	-7.98201
▁full	-7.98552
▁Yet	-7.98807
▁hold	-7.98907
▁play	-7.99262
▁fall	-7.99341
▁sword	-7.99513
▁Shall	-8.00066
▁fool	-8.00126
▁else	-8.00534
▁gentle	-8.01302
▁words	-8.01768
el	-8.02068
ish	-8.02085
▁thought	-8.0219
▁whose	-8.02451
is	-8.02549
▁said	-8.02609
▁Oh	-8.02998
▁queen	-8.03145
▁Have	-8.0326
▁p	-8.03271
▁forth	-8.03718
▁C	-8.04009
▁Nor	-8.0431
▁d	-8.04314
▁right	-8.0482
▁matter	-8.05273
▁Than	-8.05393
ig	-8.05534
un	-8.05733
ment	-8.06442
▁please	-8.06495
▁All	-8.06532
▁nature	-8.0662
▁once	-8.06649
▁unto	-8.06736
▁war	-8.06874
▁Thy	-8.07066
▁France	-8.07994
▁husband	-8.08827
▁cause	-8.08829
▁rest	-8.0962
▁indeed	-8.09671
ity	-8.09691
▁power	-8.10118
ve	-8.10134
▁back	-8.10803
ra	-8.11072
▁shame	-8.11087
▁home	-8.11107
▁even	-8.11307
▁follow	-8.1134
▁meet	-8.11958
▁mean	-8.12044
▁Fro	-8.1209
▁crown	-8.12269
ge	-8.126
▁bid	-8.12828
▁e	-8.13073
▁about	-8.13186
▁earth	-8.13734
▁whom	-8.13906
▁after	-8.1398
▁Our	-8.14064
▁boy	-8.14126
▁ho	-8.14898
▁truth	-8.15458
ance	-8.15468
▁madam	-8.15787
▁has	-8.15815
▁hour	-8.15875
▁came	-8.16119
▁ha	-8.16905
ol	-8.16967
▁thousand	-8.1697
▁turn	-8.17019
O	-8.17092
▁sea	-8.17284
▁three	-8.17872
▁lie	-8.1804
▁another	-8.1819
▁dost	-8.18252
That	-8.18253
ter	-8.18273
▁use	-8.18608
▁duke	-8.18794
man	-8.19494
▁D	-8.19948
▁fellow	-8.19963
▁state	-8.20038
ul	-8.20039
▁heard	-8.20132
▁gods	-8.20686
▁light	-8.20759
▁therefore	-8.20994
ies	-8.21068
▁faith	-8.21879
▁King	-8.21978
▁ne	-8.22004
▁An	-8.22515
ut	-8.23008
▁reason	-8.23155
▁E	-8.23667
▁far	-8.23784
ck	-8.24102
▁high	-8.24128
▁hither	-8.24504
▁hence	-8.24989
▁Mo	-8.25033
▁wrong	-8.25167
▁Master	-8.25181
▁thank	-8.25865
ry	-8.26142
▁since	-8.26176
▁fortune	-8.26196
▁Give	-8.26242
▁enough	-8.26813
▁help	-8.26814
and	-8.26907
▁Rome	-8.27039
▁villain	-8.27143
▁horse	-8.27186
▁wit	-8.27771
▁over	-8.27961
▁news	-8.28041
▁new	-8.28084
▁kind	-8.28594
.”	-8.28685
▁sure	-8.28813
▁Upon	-8.28892
▁P	-8.29028
▁things	-8.29241
▁sun	-8.2969
▁England	-8.2986
▁why	-8.2986
ne	-8.29966
▁ere	-8.30178
▁B	-8.30322
▁fire	-8.30578
▁shalt	-8.30899
▁swear	-8.30902
ive	-8.3094
▁bed	-8.31142
▁gentleman	-8.31284
▁break	-8.31599
▁ye	-8.31658
▁does	-8.31681
▁prove	-8.31738
▁false	-8.31942
ad	-8.3203
▁r	-8.32206
▁mistress	-8.32299
▁worth	-8.3242
▁ill	-8.32574
▁last	-8.32801
▁sleep	-8.32872
▁rather	-8.33008
▁strange	-8.33104
▁honest	-8.3313
▁mad	-8.33204
ow	-8.33417
▁Therefore	-8.3377
▁care	-8.33986
▁devil	-8.34087
▁hands	-8.34282
▁welcome	-8.34438
▁without	-8.3465
▁yourself	-8.34802
▁t	-8.34811
ure	-8.3508
▁W	-8.35151
T	-8.35739
the	-8.35885
ud	-8.36081
▁f	-8.36537
▁purpose	-8.36624
▁dare	-8.36648
▁court	-8.36976
▁John	-8.36993
▁spirit	-8.37017
▁breath	-8.3717
ard	-8.37451
▁land	-8.3784
id	-8.37886
▁wish	-8.37927
ted	-8.38304
me	-8.3876
▁present	-8.3899
▁lay	-8.39085
▁makes	-8.39347
ap	-8.39375
▁—	-8.39401
▁dis	-8.40319
▁send	-8.40389
▁tears	-8.40471
▁Did	-8.40853
▁lords	-8.40866
▁youth	-8.41003
”	-8.41047
▁seen	-8.41267
,—	-8.41307
▁child	-8.4153
▁sin	-8.41601
▁lost	-8.42052
▁kill	-8.42145
▁kiss	-8.42307
▁fight	-8.42316
▁saw	-8.42317
▁command	-8.42698
▁sent	-8.43105
im	-8.43301
But	-8.4335
▁desire	-8.4345
▁Would	-8.43551
▁Look	-8.43939
▁Hath	-8.43991
um	-8.4406
S	-8.44296
be	-8.44314
▁fit	-8.44338
▁service	-8.44674
▁law	-8.44785
▁talk	-8.45075
▁get	-8.45113
▁sit	-8.4512
if	-8.45398
▁body	-8.45546
ling	-8.45742
de	-8.46072
▁means	-8.46407
▁less	-8.46553
▁honor	-8.46656
▁wear	-8.46803
▁itself	-8.47102
▁seek	-8.47141
▁near	-8.47204
te	-8.4731
For	-8.47418
▁pardon	-8.47509
▁through	-8.47522
▁con	-8.47748
▁ba	-8.48211
▁co	-8.48215
ious	-8.48366
▁work	-8.48384
▁Eve	-8.48727
▁T	-8.49089
▁wind	-8.49168
▁charge	-8.492
▁left	-8.49585
▁g	-8.49807
▁only	-8.49994
vi	-8.50786
▁arms	-8.50878
▁together	-8.51275
▁ma	-8.51588
▁found	-8.51716
▁within	-8.52111
▁cousin	-8.52131
▁wilt	-8.52133
▁business	-8.52562
▁age	-8.52629
▁pass	-8.52975
▁knave	-8.53029
▁thoughts	-8.53109
ting	-8.53191
ty	-8.53231
ine	-8.5329
▁comfort	-8.53469
▁seem	-8.53917
▁foul	-8.54316
▁G	-8.5457
▁virtue	-8.54746
▁letter	-8.55096
▁joy	-8.55188
▁sound	-8.55202
▁Was	-8.5525
▁grave	-8.55274
▁half	-8.55633
▁need	-8.55635
▁sorrow	-8.55702
▁At	-8.55868
▁ear	-8.55956
▁maid	-8.56069
age	-8.56149
▁beauty	-8.56528
like	-8.56837
▁proud	-8.56994
▁gave	-8.57
▁sight	-8.57109
▁De	-8.57146
ain	-8.5755
▁told	-8.57625
▁under	-8.57646
▁lose	-8.57735
▁serve	-8.57796
▁strong	-8.58022
ward	-8.58582
▁alone	-8.58802
▁v	-8.58848
he	-8.58937
▁run	-8.59153
▁royal	-8.5924
▁hate	-8.59297
▁return	-8.59632
sh	-8.59701
▁York	-8.59724
▁wise	-8.59837
▁Some	-8.59906
x	-8.59917
▁m	-8.60036
▁pity	-8.60289
▁grief	-8.60514
▁fly	-8.60604
▁read	-8.60635
▁Though	-8.6071
▁rich	-8.61126
▁general	-8.61598
▁pleasure	-8.61598
▁believe	-8.61598
▁beseech	-8.616
▁Duke	-8.62072
▁prince	-8.62219
▁praise	-8.6232
▁thyself	-8.6255
▁gold	-8.6256
▁b	-8.6256
▁arm	-8.62734
▁people	-8.63048
▁late	-8.63415
▁appear	-8.63507
▁same	-8.63568
ho	-8.64012
▁while	-8.64021
!—	-8.64127
▁bloody	-8.64246
▁want	-8.64402
▁More	-8.64726
▁draw	-8.64736
ver	-8.64791
▁sister	-8.64963
▁Henry	-8.64964
▁lies	-8.65451
▁content	-8.65454
▁bound	-8.65467
▁May	-8.65637
▁ta	-8.65826
▁sad	-8.65969
▁cold	-8.65986
▁Take	-8.6601
▁air	-8.66345
▁doubt	-8.664
▁cry	-8.66501
▁free	-8.66701
▁Re	-8.66729
▁touch	-8.67008
▁These	-8.6712
gainst	-8.67193
▁R	-8.67342
▁sc	-8.67597
ip	-8.67667
▁dream	-8.67941
▁hard	-8.68219
▁Antony	-8.68954
rt	-8.69056
om	-8.69489
▁weep	-8.69496
▁foot	-8.69601
▁side	-8.69781
C	-8.69944
▁On	-8.70184
▁cl	-8.70198
ied	-8.70222
lo	-8.70255
▁Her	-8.70618
ven	-8.7097
E	-8.70979
▁further	-8.7101
▁majesty	-8.7101
▁trust	-8.71011
end	-8.71254
▁ask	-8.71511
▁Pray	-8.71538
▁Make	-8.71618
ier	-8.71909
▁Prince	-8.72056
▁country	-8.72058
▁Th	-8.72566
▁company	-8.72581
▁uncle	-8.72599
▁worthy	-8.72928
▁base	-8.73003
L	-8.73059
▁remember	-8.7311
▁sick	-8.736
,”	-8.73608
▁years	-8.73628
▁drink	-8.73642
▁Marry	-8.73645
▁water	-8.73652
▁certain	-8.7371
z	-8.74055
▁sing	-8.74096
▁brought	-8.74177
▁warrant	-8.74177
▁gracious	-8.7418
▁happy	-8.74199
▁mark	-8.742
led	-8.74531
▁says	-8.74589
ay	-8.74703
▁course	-8.74715
▁Farewell	-8.74741
▁change	-8.75092
▁knight	-8.75255
▁po	-8.75353
men	-8.75589
▁yield	-8.75799
What	-8.75807
▁each	-8.75824
▁Say	-8.75863
▁known	-8.76118
▁common	-8.76348
▁Were	-8.7647
▁dog	-8.76519
▁br	-8.76573
▁One	-8.76853
▁grow	-8.77059
▁cur	-8.77314
▁Can	-8.77368
co	-8.77373
▁money	-8.77447
▁lead	-8.77467
▁looks	-8.77568
▁given	-8.77662
▁fault	-8.77844
▁Edward	-8.78003
▁person	-8.78004
▁marry	-8.78025
▁field	-8.78046
▁holy	-8.78468
▁just	-8.78545
▁Like	-8.7859
▁Ha	-8.78611
▁Till	-8.78662
He	-8.78813
▁ex	-8.78827
▁report	-8.79123
▁Alas	-8.79124
eth	-8.79166
▁cut	-8.79193
▁ten	-8.79361
▁Warwick	-8.79688
▁Speak	-8.79726
▁eat	-8.79736
ui	-8.80653
▁Un	-8.80728
▁ground	-8.80834
▁sake	-8.80838
▁pay	-8.81032
▁lives	-8.81392
ick	-8.81545
for	-8.81727
▁suit	-8.81765
▁Yes	-8.81872
▁days	-8.81875
▁deep	-8.81982
▁Madam	-8.82014
▁bo	-8.82098
▁brave	-8.82331
▁French	-8.82569
▁mouth	-8.82601
▁between	-8.82771
▁walk	-8.83147
▁point	-8.83156
▁hang	-8.83273
▁See	-8.83434
▁ch	-8.83525
▁born	-8.83691
▁loved	-8.83722
▁tender	-8.83816
▁times	-8.84044
ist	-8.84713
▁fast	-8.8503
▁ring	-8.85095
▁en	-8.85122
▁confess	-8.85521
▁worse	-8.85521
▁attend	-8.85521
▁bold	-8.85549
▁Tell	-8.85572
▁counsel	-8.86123
▁watch	-8.86123
▁mock	-8.8676
▁M	-8.86839
▁mis	-8.86889
▁enemy	-8.87339
▁mercy	-8.8734
ld	-8.87356
▁heavy	-8.87416
pr	-8.88293
M	-8.88404
H	-8.8876
ever	-8.89058
▁act	-8.89093
▁woo	-8.89108
ring	-8.89132
▁woe	-8.89148
ice	-8.89186
▁black	-8.89193
▁goes	-8.89446
▁sense	-8.89774
▁patience	-8.89816
▁slave	-8.89816
▁speech	-8.89816
▁past	-8.89863
▁la	-8.90123
▁hell	-8.90338
▁save	-8.90383
▁music	-8.90431
▁women	-8.90494
▁Had	-8.90614
▁office	-8.9089
ff	-8.90907
▁question	-8.91078
▁servant	-8.91078
▁murder	-8.91103
▁voice	-8.91309
▁soldier	-8.91336
▁ears	-8.91449
ci	-8.91646
ub	-8.91669
▁knew	-8.91715
▁h	-8.91767
our	-8.91899
aw	-8.91931
ence	-8.92003
▁haste	-8.9201
▁highness	-8.92466
▁Away	-8.92478
▁merry	-8.92539
▁sovereign	-8.9298
▁Richard	-8.93004
▁deed	-8.93035
ian	-8.9313
▁next	-8.9365
▁wonder	-8.94263
▁entreat	-8.94304
▁justice	-8.94364
▁open	-8.94394
▁speed	-8.94476
▁bosom	-8.94962
▁Thus	-8.95081
▁behold	-8.95114
▁took	-8.95254
▁oath	-8.95387
▁low	-8.95537
▁revenge	-8.95584
▁Con	-8.95606
▁Hector	-8.95624
▁something	-8.95626
do	-8.95654
▁hair	-8.957
ach	-8.95994
day	-8.96088
You	-8.96195
▁themselves	-8.9629
▁valiant	-8.9629
▁straight	-8.96292
▁neither	-8.96305
▁force	-8.96307
▁lack	-8.96326
▁knows	-8.9658
▁Ma	-8.96612
▁English	-8.96962
▁farewell	-8.96963
▁Ah	-8.97245
we	-8.97333
▁hot	-8.97463
tter	-8.97579
▁pro	-8.9762
▁duty	-8.97647
▁town	-8.97655
▁spoke	-8.98093
▁canst	-8.98253
▁plain	-8.98318
My	-8.98721
▁glad	-8.99019
▁Brutus	-8.9903
▁gentlemen	-8.99045
▁Since	-8.99053
▁moon	-8.99072
▁li	-8.99316
ia	-8.995
▁traitor	-8.99504
▁learn	-8.99832
ta	-8.99833
▁flesh	-9.00387
▁close	-9.0041
▁liege	-9.00463
▁coming	-9.00717
▁coward	-9.01118
ound	-9.01393
▁di	-9.01633
As	-9.01674
▁suffer	-9.01761
▁count	-9.01882
ite	-9.01895
ail	-9.02079
▁soon	-9.02416
▁self	-9.02505
▁Should	-9.02532
vo	-9.02548
▁strength	-9.03214
R	-9.03231
ug	-9.03368
▁laugh	-9.03903
▁already	-9.03933
▁brow	-9.03979
ng	-9.04012
▁Their	-9.04078
▁become	-9.04593
▁almost	-9.04658
▁respect	-9.04685
▁twenty	-9.04695
▁beat	-9.05062
ius	-9.0513
ie	-9.05139
▁win	-9.05543
▁Out	-9.05922
os	-9.06042
▁married	-9.06126
▁Sweet	-9.06161
▁Ne	-9.06439
of	-9.06465
▁bad	-9.0648
▁offer	-9.06768
▁scorn	-9.06864
▁Peace	-9.06866
▁stir	-9.06868
▁Pro	-9.06886
▁hearts	-9.07058
▁tonight	-9.07071
▁Ho	-9.07156
▁le	-9.072
▁form	-9.07408
▁sport	-9.0761
▁action	-9.07621
are	-9.07703
▁city	-9.07714
ca	-9.07869
▁presently	-9.08099
▁loves	-9.08178
▁lo	-9.08259
▁note	-9.08297
▁loss	-9.08454
▁pale	-9.08546
▁Gloucester	-9.09119
▁prithee	-9.09119
▁stop	-9.09143
▁chamber	-9.0915
▁Such	-9.09159
▁jest	-9.09247
▁withal	-9.0931
P	-9.09343
▁deliver	-9.09364
▁burn	-9.09405
j	-9.09479
▁needs	-9.09602
▁l	-9.09866
▁strike	-9.09883
▁harm	-9.09884
▁flatter	-9.09891
▁four	-9.09945
▁mo	-9.10069
iness	-9.10311
▁white	-9.10475
▁Mistress	-9.10652
▁rage	-9.10702
▁vile	-9.10786
▁morning	-9.10789
nt	-9.10875
no	-9.11125
ose	-9.11192
▁sworn	-9.11427
▁deny	-9.1143
▁feast	-9.11431
▁lips	-9.11485
▁Stand	-9.11508
▁vi	-9.11513
▁curse	-9.11626
▁j	-9.12147
▁pluck	-9.12219
▁grant	-9.12243
▁promise	-9.12425
▁Love	-9.12561
▁didst	-9.12668
low	-9.12812
▁trouble	-9.12996
▁wild	-9.13001
▁Yea	-9.13139
▁imp	-9.13236
ily	-9.13243
▁move	-9.13284
▁writ	-9.13559
▁heir	-9.13696
▁Must	-9.13844
▁case	-9.1387
▁piece	-9.13882
V	-9.14099
▁lion	-9.141
We	-9.14176
▁pa	-9.14542
▁conscience	-9.14589
▁weak	-9.14608
▁issue	-9.14615
If	-9.1466
▁passion	-9.14693
▁tale	-9.14766
▁write	-9.14822
▁Romeo	-9.1485
ot	-9.14877
▁mar	-9.14902
▁sons	-9.15189
▁safe	-9.15375
▁beast	-9.15425
▁chance	-9.15436
▁shape	-9.15445
▁called	-9.15523
▁pe	-9.15633
▁ready	-9.15799
ue	-9.16068
▁title	-9.16209
▁kingdom	-9.1621
▁having	-9.16216
▁book	-9.16222
ke	-9.16248
▁hours	-9.16867
▁mortal	-9.17029
▁quarrel	-9.17029
▁Call	-9.17268
▁heavens	-9.17478
cy	-9.17562
▁marriage	-9.17855
▁smile	-9.17855
▁battle	-9.17855
▁understand	-9.17855
▁truly	-9.17856
▁fell	-9.18066
▁wars	-9.18459
▁thanks	-9.186
ill	-9.18635
▁Cassio	-9.18688
▁judgment	-9.18688
▁danger	-9.19492
▁fashion	-9.19529
red	-9.19635
ave	-9.20189
▁slain	-9.20376
▁pretty	-9.20376
▁loving	-9.20376
▁teach	-9.20376
▁fine	-9.2044
▁witness	-9.20518
ble	-9.20797
ors	-9.20974
▁beggar	-9.21231
▁soft	-9.21246
▁St	-9.2129
F	-9.21448
▁whole	-9.21665
Be	-9.22071
▁living	-9.22093
▁met	-9.22114
▁hide	-9.22341
▁morrow	-9.22491
▁ship	-9.22513
all	-9.22556
▁stands	-9.22565
▁short	-9.22714
▁quick	-9.22726
▁enter	-9.23015
ake	-9.23085
▁tomorrow	-9.23101
▁owe	-9.23283
▁Ch	-9.23448
▁par	-9.23478
ey	-9.23565
▁sign	-9.23834
▁Grace	-9.2384
▁steal	-9.2384
▁line	-9.23981
ary	-9.24118
▁per	-9.24236
▁letters	-9.24402
one	-9.24473
▁bond	-9.24708
▁poison	-9.24725
up	-9.24742
▁either	-9.24747
▁often	-9.24843
▁feel	-9.25214
▁got	-9.25214
▁deeds	-9.25273
ear	-9.25282
old	-9.25335
▁feed	-9.25498
▁beg	-9.25509
▁creature	-9.25617
▁commend	-9.25659
In	-9.25999
▁children	-9.26519
▁Lady	-9.2652
▁double	-9.26521
▁shake	-9.26523
▁Harry	-9.26524
▁five	-9.26578
▁pain	-9.26796
▁cap	-9.26807
▁L	-9.26888
▁Doth	-9.2695
▁enemies	-9.27427
▁hundred	-9.27427
▁perceive	-9.27427
▁order	-9.27471
min	-9.27685
out	-9.27702
▁pen	-9.28076
▁pi	-9.28133
con	-9.28183
▁begin	-9.28231
mo	-9.28433
ma	-9.28478
▁pr	-9.28542
▁Bo	-9.28545
▁fill	-9.28712
side	-9.28713
lie	-9.28816
D	-9.28948
▁spirits	-9.2921
▁birth	-9.29271
▁effect	-9.29271
▁fresh	-9.29271
▁cross	-9.29319
ial	-9.29599
ect	-9.2961
N	-9.29767
▁prisoner	-9.29807
▁add	-9.299
▁subject	-9.30069
▁excellent	-9.30205
▁plague	-9.30205
▁remain	-9.30206
▁breast	-9.30208
▁Kate	-9.30217
▁Never	-9.30241
▁guard	-9.30264
ix	-9.30491
▁longer	-9.3063
▁bar	-9.30709
▁pre	-9.30865
row	-9.30926
▁throw	-9.30969
▁fortunes	-9.30999
▁hurt	-9.31149
▁measure	-9.3115
▁While	-9.31203
by	-9.31223
▁mighty	-9.3135
▁door	-9.31502
ag	-9.31525
▁car	-9.31979
▁along	-9.32036
▁patient	-9.32101
▁ourselves	-9.32101
▁pride	-9.32102
▁finger	-9.32111
▁affection	-9.32131
▁cast	-9.32204
▁Before	-9.32235
▁wouldst	-9.32374
tle	-9.33026
▁second	-9.33063
▁worship	-9.33063
▁secret	-9.33063
▁consent	-9.33065
▁health	-9.33066
▁breed	-9.33066
▁forget	-9.33071
▁Claudio	-9.33086
▁lordship	-9.33197
▁above	-9.33369
▁soldiers	-9.33644
▁judge	-9.34034
▁wisdom	-9.34034
▁number	-9.34034
▁dangerous	-9.34076
▁fl	-9.34184
twas	-9.34298
▁tri	-9.34352
▁La	-9.3438
ct	-9.34982
▁buy	-9.35014
▁match	-9.35026
▁Know	-9.35086
▁seal	-9.35324
▁year	-9.35398
▁Po	-9.35502
nce	-9.35536
ack	-9.35736
ath	-9.35943
▁treason	-9.36004
▁worst	-9.36004
▁fetch	-9.36004
▁presence	-9.36004
▁vow	-9.36095
na	-9.3614
▁dull	-9.36197
▁fearful	-9.36305
▁Hear	-9.36591
▁beard	-9.36605
▁died	-9.36694
▁brief	-9.37004
▁small	-9.37004
▁captain	-9.37004
▁shadow	-9.37004
▁fe	-9.37202
rr	-9.37965
▁choose	-9.38014
▁ladies	-9.38029
with	-9.3866
ight	-9.38688
▁tent	-9.38739
▁dark	-9.38978
▁Because	-9.39035
▁Timon	-9.39035
▁behind	-9.39035
▁perform	-9.39035
▁Hark	-9.39035
▁least	-9.39037
▁favour	-9.39076
▁drop	-9.39162
▁foolish	-9.39167
▁deserve	-9.394
▁H	-9.39467
▁god	-9.39913
▁post	-9.4
▁Mark	-9.40066
▁bitter	-9.40074
ities	-9.40163
▁bow	-9.40253
▁Dis	-9.40779
▁Me	-9.40854
▁trumpet	-9.41107
▁virtuous	-9.41107
▁summer	-9.41108
▁noise	-9.41129
?—	-9.41175
Of	-9.41235
▁Roman	-9.4132
▁went	-9.41476
Who	-9.41639
▁N	-9.41752
twere	-9.42041
▁rogue	-9.4216
▁Hold	-9.42191
▁awhile	-9.42306
▁princes	-9.42341
▁mi	-9.42342
▁Lo	-9.42659
▁seems	-9.42968
▁blow	-9.42989
▁gl	-9.43188
▁kept	-9.43224
▁angry	-9.43224
▁Nothing	-9.43229
▁troth	-9.43234
▁rose	-9.43261
▁bless	-9.433
▁Page	-9.43314
▁purse	-9.43334
▁Pa	-9.43477
night	-9.43834
ace	-9.44195
▁Clarence	-9.44299
▁opinion	-9.44299
▁blame	-9.443
▁quickly	-9.44605
rate	-9.44821
▁receive	-9.44898
Let	-9.44921
▁cheer	-9.45345
▁emperor	-9.45386
▁swift	-9.45386
▁blind	-9.45386
▁green	-9.45386
▁round	-9.45425
▁J	-9.45448
▁heads	-9.4552
io	-9.45534
▁endure	-9.45535
▁anon	-9.4564
▁faults	-9.45697
With	-9.45946
▁Talbot	-9.46485
way	-9.46485
▁motion	-9.46485
▁paper	-9.46487
▁visit	-9.46487
▁vain	-9.46529
▁today	-9.46571
▁won	-9.46574
▁favor	-9.46834
▁brain	-9.46906
ris	-9.47024
▁aside	-9.47052
Come	-9.47058
This	-9.47071
que	-9.47379
▁En	-9.47464
ress	-9.47544
▁Jove	-9.47596
▁knock	-9.47596
▁jewel	-9.47597
▁gr	-9.47625
▁lend	-9.47625
lt	-9.47775
▁going	-9.47842
ition	-9.47881
▁Sp	-9.47985
▁Ca	-9.4799
▁prayers	-9.48054
B	-9.48373
▁humble	-9.48455
▁parts	-9.48565
Your	-9.48572
▁dinner	-9.4872
▁view	-9.4872
▁proper	-9.48721
▁wake	-9.48735
▁Welcome	-9.48772
king	-9.48783
uff	-9.48856
▁toward	-9.49075
time	-9.49271
Which	-9.49317
▁str	-9.49451
▁Co	-9.49513
ler	-9.49591
▁broke	-9.49631
▁quiet	-9.49874
▁evil	-9.49877
▁Saint	-9.49881
▁sail	-9.49882
▁taste	-9.49915
▁sorry	-9.50027
▁forgot	-9.50147
og	-9.50203
▁souls	-9.50401
that	-9.5092
▁humor	-9.51005
▁occasion	-9.51005
▁sharp	-9.51005
▁Heaven	-9.51006
▁taken	-9.51006
▁angel	-9.51007
▁herself	-9.51011
▁delight	-9.51036
ton	-9.51218
▁killed	-9.51488
▁fools	-9.51567
▁fled	-9.51715
urn	-9.51749
ught	-9.51791
▁alive	-9.51921
No	-9.51934
▁Pompey	-9.52168
▁large	-9.52168
▁clear	-9.52191
▁trick	-9.52199
▁Mine	-9.52211
▁Whom	-9.52388
ock	-9.52455
▁fo	-9.52501
!”	-9.52521
▁wert	-9.52771
▁gates	-9.52789
▁sort	-9.53074
lin	-9.5315
til	-9.53191
▁Troilus	-9.53345
▁cardinal	-9.53345
▁rascal	-9.53345
▁glory	-9.53345
▁excuse	-9.53345
▁utter	-9.53346
▁wealth	-9.53347
▁embrace	-9.53348
▁scarce	-9.53372
▁wait	-9.53385
▁laid	-9.53389
▁march	-9.53415
▁gain	-9.53475
morrow	-9.5356
but	-9.53603
▁prison	-9.53849
▁manner	-9.53992
▁honesty	-9.54121
was	-9.54163
you	-9.54273
▁fare	-9.5444
▁Ba	-9.54466
ize	-9.54501
▁monster	-9.54535
▁Jew	-9.54535
▁instant	-9.54547
▁drum	-9.54552
▁carry	-9.54571
▁Troy	-9.54596
▁catch	-9.54601
▁banish	-9.54603
▁golden	-9.54764
▁oft	-9.54897
▁bears	-9.55276
▁damn	-9.55366
▁star	-9.55408
▁wag	-9.55465
uch	-9.55592
▁slander	-9.5574
▁stood	-9.5574
▁bird	-9.5574
▁month	-9.55741
▁demand	-9.55741
▁defend	-9.55751
▁rude	-9.55773
▁Great	-9.55803
▁proof	-9.5583
▁try	-9.55835
ments	-9.56056
▁Fie	-9.56526
▁host	-9.56895
▁fat	-9.56914
▁advantage	-9.56959
▁because	-9.56959
▁shore	-9.56959
▁Think	-9.57016
▁rare	-9.57033
go	-9.57043
▁neck	-9.5706
▁bestow	-9.57095
▁Am	-9.57136
▁pains	-9.5726
ither	-9.57982
▁Signior	-9.58194
▁Suffolk	-9.58194
▁frown	-9.58194
▁obey	-9.58195
▁speaks	-9.58211
▁thither	-9.58244
▁port	-9.5825
▁fail	-9.58263
▁Stay	-9.58289
▁gall	-9.58466
▁due	-9.58503
ries	-9.58512
▁gives	-9.58544
W	-9.58673
How	-9.58955
▁join	-9.59176
▁lust	-9.59212
▁others	-9.59245
▁Lucius	-9.59444
▁approach	-9.59444
▁blush	-9.59444
▁grieve	-9.59444
▁condition	-9.59444
▁spring	-9.59444
▁Wilt	-9.59444
▁Ver	-9.59447
▁idle	-9.59449
tro	-9.5945
▁intend	-9.59452
▁Paris	-9.59453
▁six	-9.59465
▁sum	-9.59486
▁wound	-9.59729
tru	-9.59769
ning	-9.59915
▁rough	-9.59932
will	-9.60006
long	-9.6029
▁lived	-9.60574
ough	-9.60687
▁request	-9.6071
▁bastard	-9.6071
▁folly	-9.60711
▁Indeed	-9.60712
▁bright	-9.60744
mon	-9.60777
use	-9.60855
▁Moor	-9.61003
▁hadst	-9.6111
ction	-9.61153
her	-9.61282
Thou	-9.61453
▁thence	-9.61477
bed	-9.61575
▁com	-9.61704
▁shows	-9.61792
▁ga	-9.61857
▁Hamlet	-9.61992
▁Marcius	-9.61992
▁private	-9.61992
▁struck	-9.61992
▁success	-9.61992
▁widow	-9.61992
▁gross	-9.61992
▁hunt	-9.61994
▁Under	-9.61997
▁winter	-9.62044
▁sup	-9.62048
▁tree	-9.62122
Or	-9.62426
▁list	-9.62502
When	-9.62753
▁tear	-9.63008
▁sudden	-9.63043
▁Le	-9.63144
▁Christian	-9.6329
▁Angelo	-9.63291
▁knowledge	-9.63291
▁simple	-9.63291
▁storm	-9.63291
▁triumph	-9.63291
▁First	-9.63291
▁crave	-9.63321
▁chain	-9.63333
nto	-9.63614
▁greatness	-9.63902
▁cheek	-9.64305
▁held	-9.64369
ze	-9.6456
▁Cassius	-9.64606
▁steel	-9.64606
▁wicked	-9.64606
▁groan	-9.64606
▁sirrah	-9.64607
▁boot	-9.64633
▁Those	-9.64635
▁wood	-9.64782
▁rank	-9.64825
▁rain	-9.65021
▁officer	-9.65087
▁wretched	-9.65119
▁received	-9.65519
▁offend	-9.65939
▁Achilles	-9.6594
▁Buckingham	-9.6594
▁choice	-9.6594
▁church	-9.6594
▁cunning	-9.6594
▁encounter	-9.6594
▁precious	-9.6594
▁throat	-9.6594
▁Fair	-9.65941
▁awake	-9.65941
▁fiend	-9.65941
▁bones	-9.65943
▁methinks	-9.6595
▁merit	-9.65955
▁rise	-9.65963
▁loud	-9.65983
▁Prithee	-9.65987
So	-9.65999
▁Fare	-9.66006
▁offence	-9.6602
▁Unless	-9.66035
▁forward	-9.66111
▁wash	-9.66212
▁greater	-9.6679
▁forbid	-9.67231
▁argument	-9.67291
▁shepherd	-9.67291
▁Fortune	-9.67291
▁seven	-9.67292
▁aught	-9.67299
▁intent	-9.67311
▁kings	-9.67399
▁Faith	-9.67428
▁comp	-9.67429
▁dance	-9.67455
rew	-9.67495
▁wine	-9.67719
▁gra	-9.67818
ship	-9.67875
▁breathe	-9.68003
▁pure	-9.68164
va	-9.68477
▁nose	-9.68629
▁Falstaff	-9.68661
▁several	-9.68661
▁ancient	-9.68661
▁plot	-9.68662
▁spend	-9.68662
▁priest	-9.6867
▁inter	-9.68681
▁Bring	-9.68721
▁Unto	-9.68762
ueen	-9.68818
▁ca	-9.68913
▁masters	-9.69235
▁Ere	-9.69241
▁sigh	-9.69496
twixt	-9.69531
▁goodly	-9.69608
some	-9.69684
▁moved	-9.69886
▁Margaret	-9.7005
▁thunder	-9.7005
▁dispatch	-9.7005
▁Earl	-9.70065
▁safety	-9.70085
▁fame	-9.70092
▁wherefore	-9.70099
▁fish	-9.70173
▁quite	-9.70226
▁claim	-9.70259
▁forgive	-9.70346
▁Hero	-9.7035
▁hearing	-9.70385
▁shine	-9.70574
▁red	-9.70649
▁whence	-9.70667
▁army	-9.70732
▁princely	-9.70777
Where	-9.70922
▁among	-9.71092
uc	-9.7111
▁melancholy	-9.71458
▁messenger	-9.71458
▁fie	-9.7146
▁debt	-9.71462
▁depart	-9.71465
▁anger	-9.71478
▁stain	-9.71536
▁bend	-9.71671
▁wanton	-9.71686
▁cheeks	-9.71782
▁bare	-9.718
▁powers	-9.72031
▁deal	-9.72048
▁lest	-9.72107
▁Wherein	-9.72208
▁pleased	-9.7227
▁gar	-9.72306
▁wretch	-9.72333
ai	-9.72362
▁calls	-9.72662
▁weary	-9.72688
Do	-9.72698
▁cruel	-9.72866
▁story	-9.72887
▁wrath	-9.72887
▁consider	-9.72887
▁roar	-9.72887
▁accuse	-9.72887
▁travel	-9.7289
▁bleed	-9.72894
▁malice	-9.72895
▁gallant	-9.7293
Could	-9.7293
▁Made	-9.72936
▁heels	-9.72983
▁Get	-9.73002
▁kneel	-9.73347
▁wounds	-9.73366
ical	-9.73438
▁stars	-9.73522
▁Art	-9.73554
▁drawn	-9.73559
▁manners	-9.73569
▁legs	-9.73636
Than	-9.73797
Poor	-9.74043
▁heat	-9.74058
▁Antonio	-9.74336
▁liberty	-9.74336
▁courage	-9.74336
▁labour	-9.74336
▁yourselves	-9.74336
▁charm	-9.74336
▁repent	-9.74337
▁fruit	-9.74339
ile	-9.7434
▁terms	-9.74403
▁colour	-9.74411
▁tune	-9.74414
▁foe	-9.74607
▁borne	-9.74886
rough	-9.75052
▁drown	-9.75248
▁wits	-9.75404
By	-9.75573
▁Com	-9.75662
▁sw	-9.75773
▁Dauphin	-9.75807
▁remembrance	-9.75807
▁thief	-9.75807
▁thrice	-9.75807
▁labor	-9.75807
▁courtesy	-9.75807
▁mourn	-9.75822
?”	-9.75841
▁glass	-9.75877
▁pound	-9.75878
▁Both	-9.75925
▁song	-9.75969
▁turned	-9.77036
▁Helen	-9.77183
▁perfect	-9.77243
▁disgrace	-9.77299
▁particular	-9.77299
▁slaughter	-9.77299
▁Pardon	-9.77299
▁Count	-9.773
▁stuff	-9.77301
▁third	-9.77301
▁raise	-9.77303
▁proclaim	-9.77304
▁dwell	-9.77317
▁gift	-9.77354
▁Bid	-9.77402
▁Without	-9.77428
▁meat	-9.7748
▁du	-9.775
live	-9.77897
▁cure	-9.77907
iest	-9.78005
let	-9.78759
▁Majesty	-9.78814
▁discourse	-9.78814
▁monstrous	-9.78814
▁temper	-9.78814
▁smell	-9.78814
▁nay	-9.7882
▁Hal	-9.7882
▁spent	-9.78823
▁Jack	-9.78827
▁frame	-9.78858
not	-9.7887
▁babe	-9.789
▁hit	-9.7895
ba	-9.79413
lor	-9.7974
Have	-9.79843
serve	-9.79903
▁mayst	-9.79979
▁promised	-9.80267
▁scar	-9.80311
▁Clifford	-9.80353
▁London	-9.80353
▁challenge	-9.80353
▁minister	-9.80353
▁tyrant	-9.80353
▁credit	-9.80353
▁root	-9.80353
▁Methinks	-9.80353
▁throne	-9.80353
▁desert	-9.80353
▁protest	-9.80353
▁stock	-9.80355
▁anything	-9.80357
▁discover	-9.80357
tract	-9.8036
▁fought	-9.80363
▁twice	-9.80372
▁blows	-9.80417
▁lock	-9.80423
rag	-9.80453
▁Put	-9.80476
spect	-9.80479
▁Anne	-9.8048
▁vice	-9.80494
▁guilty	-9.80496
▁foes	-9.80504
▁dry	-9.80523
▁faint	-9.81241
▁proceed	-9.81425
atch	-9.81443
▁Within	-9.81477
bus	-9.81521
▁knee	-9.81604
▁silence	-9.81915
▁countenance	-9.81915
▁girl	-9.81915
▁cried	-9.81915
▁fond	-9.8192
▁food	-9.81928
▁ease	-9.81929
▁mountain	-9.81931
▁ruin	-9.81977
▁few	-9.82039
▁Sh	-9.82246
▁Lest	-9.82347
▁grows	-9.82442
▁affairs	-9.82514
my	-9.82514
▁spite	-9.82559
▁former	-9.8263
▁blessed	-9.82732
▁cost	-9.82929
▁weigh	-9.83019
▁wast	-9.83065
▁stranger	-9.83066
light	-9.83092
▁shouldst	-9.83107
▁Follow	-9.83502
▁Somerset	-9.83502
▁Valentine	-9.83502
▁corrupt	-9.83502
▁counterfeit	-9.83502
▁leisure	-9.83502
▁equal	-9.83503
▁nurse	-9.83503
▁weapon	-9.83503
▁ransom	-9.83504
▁betray	-9.83504
▁quoth	-9.83528
▁slow	-9.83535
▁boys	-9.83535
▁wide	-9.8357
It	-9.83594
hood	-9.83628
▁dust	-9.83796
bear	-9.83839
▁single	-9.842
ify	-9.84344
▁doom	-9.8448
▁cat	-9.84598
▁rule	-9.84813
▁seat	-9.84822
▁drunk	-9.84999
Here	-9.85046
▁instrument	-9.85115
▁school	-9.85115
▁stomach	-9.85115
▁express	-9.85116
▁whether	-9.85116
▁bawd	-9.85118
▁usurp	-9.85119
▁enjoy	-9.8512
▁prize	-9.85128
▁loath	-9.85132
▁Still	-9.85136
▁fury	-9.85136
▁rock	-9.85152
▁Wherefore	-9.85164
▁waste	-9.85166
▁Please	-9.85182
▁After	-9.85209
▁cover	-9.85219
▁lawful	-9.85287
▁madness	-9.85375
▁maiden	-9.85443
▁stone	-9.85673
▁tongues	-9.85686
▁blessing	-9.85859
▁Only	-9.85916
▁mend	-9.85964
▁wrongs	-9.86685
▁Lancaster	-9.86755
▁custom	-9.86755
▁degree	-9.86755
▁recover	-9.86755
▁silver	-9.86755
▁worm	-9.86755
▁drive	-9.86755
▁thrive	-9.86755
▁easy	-9.86755
▁reign	-9.86756
▁paid	-9.86805
▁peril	-9.86824
▁ride	-9.86923
eak	-9.86949
▁skill	-9.86951
kin	-9.87009
▁honourable	-9.87045
▁oaths	-9.87493
▁warm	-9.87557
▁used	-9.87595
▁looked	-9.87797
▁Ro	-9.87851
▁sta	-9.88072
▁fa	-9.88116
▁hanged	-9.88324
▁entertain	-9.88383
▁condemn	-9.88421
▁Bolingbroke	-9.88421
▁Greek	-9.88421
▁adieu	-9.88421
▁niece	-9.88421
▁revolt	-9.88421
▁profit	-9.88422
▁valor	-9.88422
▁offense	-9.88422
▁devise	-9.88423
▁corn	-9.88425
▁season	-9.88434
▁step	-9.88437
▁lover	-9.88494
scape	-9.88568
▁kindness	-9.887
▁aid	-9.88836
▁dearest	-9.88929
▁yea	-9.89009
right	-9.89175
▁Hast	-9.89286
▁weight	-9.89348
G	-9.89358
tween	-9.89505
▁holds	-9.89532
vil	-9.89747
▁wench	-9.90021
▁vows	-9.90047
▁Ajax	-9.90116
▁Egypt	-9.90116
▁forsworn	-9.90116
▁minute	-9.90116
▁natural	-9.90116
▁solemn	-9.90116
▁treasure	-9.90116
▁stroke	-9.90116
▁supper	-9.90117
▁Iago	-9.90123
▁dreadful	-9.90155
▁rebel	-9.90172
▁Fear	-9.9019
▁honorable	-9.90265
▁desires	-9.90265
▁ran	-9.90283
▁subjects	-9.90365
▁broken	-9.90458
▁main	-9.90646
▁provide	-9.90752
▁unless	-9.90797
fold	-9.90896
▁sooner	-9.90903
rave	-9.90904
▁abuse	-9.91178
▁hid	-9.91362
house	-9.91637
▁Bardolph	-9.9184
▁abroad	-9.9184
▁execution	-9.9184
▁remedy	-9.9184
▁study	-9.9184
▁womb	-9.9184
▁always	-9.91841
▁disease	-9.91841
▁Besides	-9.91846
▁ripe	-9.91854
▁nine	-9.91859
▁cup	-9.91918
▁Sirrah	-9.91921
▁table	-9.92059
▁Set	-9.92295
▁damned	-9.92642
▁flower	-9.92705
▁fain	-9.92779
▁wa	-9.92786
▁wherein	-9.92921
head	-9.93148
▁allow	-9.93294
▁flow	-9.93332
▁jealous	-9.9336
▁import	-9.93522
▁Ford	-9.93531
▁affect	-9.93539
▁oppos	-9.93582
▁figure	-9.93595
▁guest	-9.93595
▁memory	-9.93595
▁render	-9.93595
▁account	-9.93595
▁doctor	-9.93595
▁realm	-9.93596
▁marvel	-9.93617
▁sack	-9.93624
▁prick	-9.93625
▁Hang	-9.93634
pped	-9.93689
▁trial	-9.93748
▁sometime	-9.94351
▁fellows	-9.94381
▁wall	-9.94488
Will	-9.94857
born	-9.94904
▁stones	-9.95033
▁sacr	-9.9538
▁Rosalind	-9.95381
▁Silvia	-9.95381
▁desperate	-9.95381
▁humour	-9.95381
▁possible	-9.95381
▁tempt	-9.95381
▁estate	-9.95384
▁urge	-9.95385
▁flood	-9.95386
▁fancy	-9.95391
▁borrow	-9.95392
▁sheep	-9.954
▁color	-9.95407
▁making	-9.95414
▁yonder	-9.95562
▁reasons	-9.95646
▁humbl	-9.95803
▁outward	-9.95829
▁goodness	-9.95923
une	-9.96008
▁clouds	-9.96016
▁heav	-9.96098
▁joint	-9.96122
▁heavenly	-9.96246
▁walls	-9.96568
▁towards	-9.96627
▁Bear	-9.96695
▁greet	-9.96707
She	-9.96751
hear	-9.96854
▁spi	-9.96933
▁crow	-9.9704
▁Benedick	-9.97199
▁chief	-9.97199
▁companion	-9.97199
▁happiness	-9.97199
▁innocent	-9.97199
▁whilst	-9.97199
▁reverend	-9.97199
▁regard	-9.97199
▁mirth	-9.97199
▁hollow	-9.97199
▁teeth	-9.97199
▁trade	-9.972
▁wives	-9.972
▁divine	-9.97204
▁Turn	-9.97233
▁flight	-9.97241
▁Keep	-9.97314
▁warlike	-9.97328
▁bark	-9.97431
▁firm	-9.97535
▁chide	-9.97613
▁deceived	-9.97707
aving	-9.97813
▁Li	-9.97883
▁start	-9.98228
▁meaning	-9.98521
▁tomb	-9.98648
▁learned	-9.98675
▁lovers	-9.98868
▁wont	-9.98901
▁whore	-9.98919
ator	-9.98928
▁weeping	-9.98962
▁virgin	-9.99019
▁dread	-9.99044
▁Proteus	-9.99051
▁Whilst	-9.99051
▁object	-9.99051
▁prevail	-9.99051
▁Cupid	-9.99051
▁absence	-9.99051
▁charity	-9.99051
▁spare	-9.99051
▁Two	-9.99051
▁denied	-9.99051
▁image	-9.99051
▁search	-9.99051
▁Percy	-9.99061
▁fright	-9.99082
▁bull	-9.99097
▁rail	-9.99126
▁lament	-9.99199
▁whereof	-9.99221
▁press	-9.99293
U	-9.99322
▁Hence	-9.99324
elf	-9.99403
▁feet	-9.99409
▁def	-9.99597
▁grown	-9.99932
▁Sc	-10.0024
▁flowers	-10.0038
Good	-10.004
read	-10.0076
▁fan	-10.0086
▁enforce	-10.0094
▁Tybalt	-10.0094
▁asleep	-10.0094
▁buried	-10.0094
▁naked	-10.0094
▁picture	-10.0094
▁smooth	-10.0094
▁thrust	-10.0094
▁whip	-10.0094
▁civil	-10.0094
▁Athens	-10.0094
▁envy	-10.0094
▁constant	-10.0094
▁disdain	-10.0094
▁shut	-10.0094
▁compass	-10.0094
▁Tower	-10.0095
▁glove	-10.0095
▁quit	-10.0103
▁Ex	-10.0105
▁window	-10.0105
pper	-10.011
▁sooth	-10.0125
part	-10.0191
fore	-10.0191
▁pur	-10.0193
▁able	-10.0214
what	-10.0233
▁gate	-10.0235
ray	-10.0239
▁knife	-10.0286
▁troop	-10.0286
▁Titus	-10.0286
▁True	-10.0286
▁convey	-10.0286
▁prevent	-10.0286
▁Three	-10.0286
▁swore	-10.0286
▁commission	-10.0286
▁store	-10.0286
▁Myself	-10.0286
▁leg	-10.0286
▁gown	-10.0286
▁aim	-10.0287
▁undone	-10.0288
▁tread	-10.0289
▁mild	-10.0289
▁loose	-10.0289
▁lean	-10.0302
▁sway	-10.0302
▁page	-10.0308
▁Men	-10.0309
▁north	-10.0315
▁griefs	-10.0345
uit	-10.0349
▁fra	-10.0349
▁Va	-10.0405
▁prepare	-10.0411
▁deserved	-10.0419
▁renown	-10.0482
▁Charles	-10.0482
▁dagger	-10.0482
▁despair	-10.0482
▁ducats	-10.0482
▁Believe	-10.0482
▁guess	-10.0482
▁maintain	-10.0482
▁habit	-10.0482
▁authority	-10.0484
▁train	-10.0485
▁bought	-10.0485
▁emb	-10.0488
▁Show	-10.0488
▁pack	-10.0496
▁Save	-10.0497
▁pick	-10.05
▁mount	-10.0502
▁forest	-10.0508
ridge	-10.0519
▁seeming	-10.0522
▁lad	-10.0531
▁None	-10.0537
▁spoken	-10.0549
▁wings	-10.057
his	-10.0573
▁greatest	-10.0594
gged	-10.0609
▁rid	-10.065
▁knees	-10.0658
▁Too	-10.0665
▁expect	-10.0678
▁Marcus	-10.0682
▁conclude	-10.0682
▁quality	-10.0682
▁tempest	-10.0682
▁tidings	-10.0682
▁naught	-10.0682
▁Alack	-10.0682
▁honey	-10.0682
▁earnest	-10.0682
▁verse	-10.0683
▁confirm	-10.0684
▁undertake	-10.0684
shrew	-10.0685
▁hill	-10.0686
▁flies	-10.0688
▁cries	-10.0689
▁thick	-10.07
▁plead	-10.0702
▁sickness	-10.0704
ok	-10.0738
▁bl	-10.0784
▁served	-10.0793
▁doors	-10.0793
got	-10.0794
▁streets	-10.0809
▁sometimes	-10.0816
▁Per	-10.0821
▁wing	-10.0828
Shall	-10.0832
▁spur	-10.0863
Our	-10.0868
▁fate	-10.0885
▁Thomas	-10.0886
▁contempt	-10.0886
▁despite	-10.0886
▁disposition	-10.0886
▁esteem	-10.0886
▁forfeit	-10.0886
▁friar	-10.0886
▁league	-10.0886
▁conceit	-10.0886
▁valour	-10.0886
▁ghost	-10.0886
▁crack	-10.0886
▁plant	-10.0886
▁lamb	-10.0886
▁sweat	-10.0892
▁painted	-10.0892
▁sentence	-10.0893
God	-10.0899
▁mile	-10.0907
▁deadly	-10.0935
▁assured	-10.0953
▁forbear	-10.0953
▁amend	-10.0968
▁dam	-10.0974
▁freely	-10.0989
Read	-10.1009
▁voices	-10.1018
foot	-10.1041
▁spe	-10.1044
▁shallow	-10.1044
▁melt	-10.1063
▁Cressid	-10.1095
▁Northumberland	-10.1095
▁build	-10.1095
▁empty	-10.1095
▁mischief	-10.1095
▁public	-10.1095
▁violent	-10.1095
▁cease	-10.1095
▁device	-10.1095
▁dumb	-10.1095
▁hark	-10.1095
▁tedious	-10.1095
▁princess	-10.1095
▁Help	-10.1096
▁mistake	-10.1096
▁Caius	-10.1097
▁alter	-10.1097
▁taught	-10.1098
▁protector	-10.11
▁pin	-10.1101
▁Shallow	-10.1115
▁modesty	-10.1116
▁coat	-10.1121
▁reward	-10.1121
▁suddenly	-10.1135
▁begins	-10.1139
▁meant	-10.1144
▁apt	-10.1146
▁traitors	-10.1152
▁becomes	-10.1173
▁Lu	-10.1175
▁banished	-10.1192
rain	-10.1195
▁sour	-10.1213
over	-10.1225
▁led	-10.1257
His	-10.1265
▁Romans	-10.1267
▁rob	-10.1291
▁ru	-10.1291
▁Demetrius	-10.1307
▁Salisbury	-10.1307
▁advance	-10.1307
▁contrary	-10.1307
▁dishonour	-10.1307
▁require	-10.1307
▁reverence	-10.1307
▁suspect	-10.1307
▁vengeance	-10.1307
▁Humphrey	-10.1307
▁Nature	-10.1307
▁retire	-10.1307
▁kinsman	-10.1307
▁exceed	-10.1307
▁salt	-10.1307
▁iron	-10.1308
mongst	-10.1308
▁swell	-10.1309
▁Might	-10.131
▁band	-10.1321
▁market	-10.1321
▁cool	-10.1323
▁tame	-10.1324
▁cock	-10.1328
▁faithful	-10.1336
ung	-10.1339
ties	-10.1353
There	-10.137
oint	-10.138
▁party	-10.1404
come	-10.1413
Go	-10.1422
faced	-10.1433
▁garments	-10.1443
▁tall	-10.1444
▁wi	-10.1447
▁cloud	-10.1448
▁assure	-10.1461
▁qui	-10.148
▁employ	-10.1519
▁Juliet	-10.1525
▁benefit	-10.1525
▁conduct	-10.1525
▁council	-10.1525
▁empress	-10.1525
▁hazard	-10.1525
▁ignorant	-10.1525
▁length	-10.1525
▁limbs	-10.1525
▁obedience	-10.1525
▁vantage	-10.1525
▁confound	-10.1525
▁spake	-10.1525
▁value	-10.1525
▁pursue	-10.1525
▁durst	-10.1525
▁Thanks	-10.1526
▁slight	-10.1527
▁besides	-10.153
▁govern	-10.1533
▁Leave	-10.1534
▁pair	-10.1534
▁big	-10.154
rous	-10.1545
▁sighs	-10.1552
▁witch	-10.1556
▁therein	-10.1573
land	-10.1573
law	-10.158
▁lovely	-10.1594
▁dew	-10.1604
▁fu	-10.1606
▁rat	-10.1619
▁Pre	-10.1648
▁brains	-10.1671
▁unb	-10.1677
▁sat	-10.1706
Give	-10.1708
▁direct	-10.1717
▁drops	-10.1719
▁Andronicus	-10.1747
▁George	-10.1747
▁Montague	-10.1747
▁Pyramus	-10.1747
▁Truly	-10.1747
▁complexion	-10.1747
▁glorious	-10.1747
▁policy	-10.1747
▁rhyme	-10.1747
▁satisfied	-10.1747
▁suck	-10.1747
▁ambition	-10.1747
▁approve	-10.1747
▁alas	-10.1749
▁edge	-10.175
▁brook	-10.175
▁fiery	-10.1751
▁dispose	-10.1755
▁bud	-10.1759
▁dish	-10.1773
▁tide	-10.1774
▁suppose	-10.1792
ook	-10.1794
▁robb	-10.1808
rai	-10.1834
▁offended	-10.184
your	-10.1857
▁fairest	-10.1875
▁early	-10.1892
▁horn	-10.1907
clock	-10.192
place	-10.192
▁possess	-10.1927
▁modest	-10.1951
▁ope	-10.1959
▁gifts	-10.1966
▁Edmund	-10.1974
▁concern	-10.1974
▁displeasure	-10.1974
▁persuade	-10.1974
▁practise	-10.1974
▁purchase	-10.1974
▁reputation	-10.1974
▁swallow	-10.1974
▁tremble	-10.1974
▁wander	-10.1974
▁circumstance	-10.1974
▁Draw	-10.1974
▁elder	-10.1974
▁vex	-10.1974
▁rash	-10.1974
▁key	-10.1975
▁inform	-10.1975
▁beloved	-10.1975
▁threaten	-10.198
▁torment	-10.1981
▁Behold	-10.1981
▁bill	-10.1981
ible	-10.2022
▁bite	-10.203
▁Lay	-10.2033
▁que	-10.2078
ient	-10.2094
▁Sit	-10.2094
aside	-10.2179
▁followed	-10.2192
▁hat	-10.2195
rrow	-10.2201
▁infect	-10.2201
▁punish	-10.2202
▁Camillo	-10.2207
▁Captain	-10.2207
▁afflict	-10.2207
▁attempt	-10.2207
▁behalf	-10.2207
▁conjure	-10.2207
▁extreme	-10.2207
▁familiar	-10.2207
▁hereafter	-10.2207
▁practice	-10.2207
▁spoil	-10.2207
▁substance	-10.2207
▁Hermia	-10.2207
▁prefer	-10.2207
▁bodies	-10.2207
▁shot	-10.2207
▁discharge	-10.2208
▁gentlewoman	-10.2209
▁Brook	-10.2209
▁chase	-10.221
▁delay	-10.2211
▁strain	-10.2211
▁herald	-10.2212
▁About	-10.2219
▁fee	-10.2219
▁victory	-10.2222
▁Hail	-10.2225
▁beyond	-10.2231
love	-10.2239
▁beaten	-10.2239
▁stab	-10.2254
ope	-10.2264
Not	-10.2277
new	-10.2301
where	-10.2301
Cannot	-10.2332
▁sink	-10.2349
▁Pla	-10.2395
▁murderer	-10.2435
▁profess	-10.2439
▁hung	-10.2444
▁Beatrice	-10.2445
▁Mortimer	-10.2445
▁Trojan	-10.2445
▁Venice	-10.2445
▁advice	-10.2445
▁afraid	-10.2445
▁difference	-10.2445
▁furnish	-10.2445
▁infinite	-10.2445
▁native	-10.2445
▁repair	-10.2445
▁temple	-10.2445
▁twelve	-10.2445
▁unworth	-10.2445
▁whisper	-10.2445
▁abhor	-10.2445
▁fierce	-10.2445
▁stream	-10.2445
▁beguile	-10.2445
▁depend	-10.2445
▁trifle	-10.2445
▁seize	-10.2445
▁avoid	-10.2445
▁lodge	-10.2445
▁torture	-10.2445
▁boast	-10.2445
▁whither	-10.2445
▁consul	-10.2445
▁dying	-10.2446
▁preserve	-10.2446
▁Hastings	-10.2447
▁Mars	-10.245
▁friendship	-10.2451
▁tu	-10.2452
▁bred	-10.2454
▁courtier	-10.2456
▁belly	-10.2461
▁fatal	-10.2462
▁castle	-10.2467
▁undo	-10.2475
▁pour	-10.2483
▁resolved	-10.2492
take	-10.2508
De	-10.2512
▁dine	-10.252
twill	-10.2567
Un	-10.2572
▁sold	-10.2603
thought	-10.2635
give	-10.2649
Now	-10.2657
▁Pe	-10.2666
▁conquer	-10.2675
▁Lavinia	-10.2689
▁Macbeth	-10.2689
▁Norfolk	-10.2689
▁Plantagenet	-10.2689
▁neglect	-10.2689
▁neighbor	-10.2689
▁midnight	-10.2689
▁room	-10.2689
▁unknown	-10.2689
▁human	-10.2689
▁knot	-10.2689
▁vein	-10.2689
▁stick	-10.2689
▁abide	-10.2689
▁wax	-10.2691
▁token	-10.2692
▁nice	-10.2692
▁special	-10.2696
▁error	-10.27
▁dearly	-10.2713
▁prey	-10.2753
▁event	-10.2758
▁shortly	-10.2759
▁horns	-10.2762
▁abused	-10.2791
▁weeds	-10.2806
▁burning	-10.2848
▁liest	-10.2863
think	-10.2885
would	-10.2885
rum	-10.2894
rry	-10.2896
look	-10.2902
▁guilt	-10.2911
▁bent	-10.2925
▁Brother	-10.2939
▁Desdemona	-10.2939
▁Whither	-10.2939
▁accident	-10.2939
▁apparel	-10.2939
▁appetite	-10.2939
▁perforce	-10.2939
▁savage	-10.2939
▁vessel	-10.2939
▁Arthur	-10.2939
▁chaste	-10.2939
▁feather	-10.2939
▁silk	-10.2939
▁sky	-10.2939
▁inherit	-10.2939
▁scene	-10.2939
▁nation	-10.294
▁sell	-10.2942
▁rush	-10.2942
▁game	-10.2945
▁ladyship	-10.2948
▁revel	-10.2948
▁sue	-10.2949
▁Lie	-10.2949
▁passage	-10.295
▁odds	-10.2952
▁Live	-10.2975
▁tend	-10.2981
▁followers	-10.2981
cus	-10.2993
▁bade	-10.3015
▁east	-10.3017
▁sleeping	-10.3035
cle	-10.3052
▁sur	-10.306
▁prayer	-10.3095
▁fr	-10.3101
▁hap	-10.3116
▁commit	-10.3193
▁Bassanio	-10.3195
▁Burgundy	-10.3195
▁bottom	-10.3195
▁cuckold	-10.3195
▁despise	-10.3195
▁forsooth	-10.3195
▁ignorance	-10.3195
▁language	-10.3195
▁monument	-10.3195
▁vouchsafe	-10.3195
▁pocket	-10.3195
▁divide	-10.3195
▁observe	-10.3195
▁yoke	-10.3195
▁confine	-10.3195
▁calm	-10.3195
▁flame	-10.3196
▁Full	-10.3196
▁saint	-10.3197
▁venture	-10.3197
▁Kent	-10.3199
▁rate	-10.3202
▁hateful	-10.3219
▁sting	-10.3225
▁Dear	-10.3249
▁Tomorrow	-10.325
▁Once	-10.3259
bate	-10.326
lay	-10.3269
▁proceeding	-10.3277
▁betwixt	-10.3311
▁tie	-10.3318
▁wink	-10.3358
hold	-10.3384
▁pate	-10.3388
tell	-10.3449
Y	-10.3449
bar	-10.3456
▁qua	-10.3456
▁physic	-10.3457
▁Although	-10.3458
▁Capitol	-10.3458
▁Pistol	-10.3458
▁although	-10.3458
▁bounty	-10.3458
▁except	-10.3458
▁impossible	-10.3458
▁knit	-10.3458
▁lieutenant	-10.3458
▁merchant	-10.3458
▁privilege	-10.3458
▁serpent	-10.3458
▁shift	-10.3458
▁thieves	-10.3458
▁wrought	-10.3458
▁admit	-10.3458
▁twain	-10.3458
▁guide	-10.3458
▁huge	-10.3458
▁Time	-10.3458
▁tailor	-10.3458
▁decay	-10.3458
▁whoreson	-10.3459
▁tarry	-10.346
▁task	-10.3461
▁bride	-10.3461
▁pitch	-10.3462
▁Death	-10.3464
▁strive	-10.3464
▁entertainment	-10.3464
▁perish	-10.3469
▁tire	-10.3469
▁unfold	-10.3471
▁darkness	-10.3473
▁peers	-10.3474
▁revenged	-10.3474
▁poet	-10.3476
▁saved	-10.3489
▁Send	-10.3492
▁Tra	-10.3508
▁Thisbe	-10.352
lus	-10.352
▁clock	-10.3526
▁Amen	-10.3584
▁praised	-10.3587
▁determine	-10.3595
▁deer	-10.3605
▁stronger	-10.3647
▁slip	-10.365
▁earl	-10.3666
▁below	-10.367
master	-10.3675
▁sha	-10.3678
▁morn	-10.368
▁whe	-10.3688
▁K	-10.3705
▁cursed	-10.371
hearted	-10.3715
▁Adieu	-10.3729
▁Bianca	-10.3729
▁Whether	-10.3729
▁censure	-10.3729
▁dignity	-10.3729
▁palace	-10.3729
▁rotten	-10.3729
▁slew	-10.3729
▁snow	-10.3729
▁zeal	-10.3729
▁shun	-10.3729
▁garden	-10.3729
▁barren	-10.3729
▁weather	-10.3729
▁bind	-10.3729
▁acquaintance	-10.373
▁mood	-10.3731
▁craft	-10.3731
▁gaze	-10.3732
▁contract	-10.3732
▁taint	-10.3732
▁fox	-10.3733
▁assist	-10.3734
▁amiss	-10.3735
▁chose	-10.3736
▁Came	-10.3736
▁countrymen	-10.3737
▁Remember	-10.3738
▁blest	-10.3738
▁moment	-10.374
▁acquainted	-10.3754
▁heartily	-10.3762
▁lip	-10.3792
▁wave	-10.3794
▁island	-10.3819
▁Does	-10.3908
They	-10.3937
fellow	-10.3952
Thy	-10.3953
▁Die	-10.3976
him	-10.3983
▁term	-10.3997
join	-10.3999
▁odd	-10.4006
▁Diomed	-10.4006
▁Lucentio	-10.4006
▁Lysander	-10.4006
▁Strike	-10.4006
▁accept	-10.4006
▁burden	-10.4006
▁citizens	-10.4006
▁conclusion	-10.4006
▁enterprise	-10.4006
▁eternal	-10.4006
▁necessity	-10.4006
▁oppress	-10.4006
▁stoop	-10.4006
▁tribunes	-10.4006
▁unnatural	-10.4006
▁worn	-10.4006
▁Nurse	-10.4006
▁eagle	-10.4006
▁senate	-10.4006
▁execute	-10.4006
▁William	-10.4006
▁blunt	-10.4006
▁stamp	-10.4006
▁March	-10.4006
▁milk	-10.4006
▁create	-10.4006
▁misery	-10.4007
▁Find	-10.4007
▁subtle	-10.4007
▁Soft	-10.4008
▁otherwise	-10.4008
▁butcher	-10.4009
▁Peter	-10.401
▁possession	-10.4013
▁eight	-10.4015
▁leap	-10.4015
▁dress	-10.4016
▁ski	-10.4017
▁flat	-10.4018
▁Every	-10.4025
▁pace	-10.403
▁amazed	-10.4051
▁returned	-10.4063
▁changed	-10.4092
▁prepared	-10.4108
An	-10.4123
▁height	-10.4137
▁hardly	-10.4146
came	-10.4172
▁boar	-10.4219
▁advise	-10.4221
▁twi	-10.4225
rench	-10.4259
▁Up	-10.4285
▁ape	-10.4287
▁Hercules	-10.4292
▁example	-10.4292
▁provoke	-10.4292
▁record	-10.4292
▁secure	-10.4292
▁shoot	-10.4292
▁slept	-10.4292
▁stretch	-10.4292
▁Robert	-10.4292
▁afford	-10.4292
▁nephew	-10.4292
▁spot	-10.4292
▁terror	-10.4292
▁wondrous	-10.4292
▁Commend	-10.4292
▁strife	-10.4292
▁distress	-10.4292
▁quarter	-10.4292
▁redeem	-10.4292
▁refuse	-10.4292
▁pearl	-10.4292
▁Father	-10.4292
▁harsh	-10.4292
▁bury	-10.4292
▁Hereford	-10.4292
▁pomp	-10.4292
▁Many	-10.4292
▁raven	-10.4292
▁shrewd	-10.4293
▁nobly	-10.4294
▁felt	-10.4295
▁pause	-10.4295
▁Long	-10.4296
▁surge	-10.4296
▁banishment	-10.43
▁nobility	-10.4311
▁luck	-10.4317
▁Young	-10.4349
▁stol	-10.438
rook	-10.438
▁sought	-10.4383
▁suitor	-10.4403
▁agree	-10.4414
put	-10.4415
aint	-10.4428
▁dote	-10.4492
▁ago	-10.451
▁chin	-10.4525
which	-10.4532
firm	-10.4535
hand	-10.4537
▁chid	-10.4539
Twe	-10.4559
▁Dromio	-10.4586
▁Jupiter	-10.4586
▁Othello	-10.4586
▁Pericles	-10.4586
▁Petruchio	-10.4586
▁ambitious	-10.4586
▁beauteous	-10.4586
▁character	-10.4586
▁discretion	-10.4586
▁envious	-10.4586
▁journey	-10.4586
▁rescue	-10.4586
▁spleen	-10.4586
▁tyranny	-10.4586
▁conceive	-10.4586
▁goddess	-10.4586
▁silent	-10.4586
▁breach	-10.4586
▁pleasant	-10.4586
▁element	-10.4586
▁shoe	-10.4586
▁dozen	-10.4587
▁message	-10.4587
▁week	-10.4587
▁physician	-10.4588
▁wholesome	-10.4588
▁coz	-10.4589
▁committed	-10.4589
▁Highness	-10.459
▁frail	-10.4593
▁perfection	-10.4597
▁sand	-10.4601
▁giving	-10.4602
▁willingly	-10.4603
▁friendly	-10.4604
▁Tut	-10.4606
▁kin	-10.4609
▁plu	-10.4609
▁restore	-10.4614
▁joyful	-10.4615
▁Cry	-10.4616
▁thankful	-10.4625
▁befall	-10.463
▁Sure	-10.4639
▁nought	-10.465
▁bag	-10.466
▁advised	-10.466
▁Toby	-10.4667
have	-10.4682
more	-10.4688
▁lap	-10.4694
well	-10.4699
lves	-10.4701
wear	-10.4718
▁kindly	-10.4807
Why	-10.4835
bolt	-10.4854
▁Ten	-10.4866
▁hanging	-10.4876
▁discontent	-10.4889
▁Agamemnon	-10.4889
▁Aufidius	-10.4889
▁Hubert	-10.4889
▁Richmond	-10.4889
▁Tranio	-10.4889
▁ashamed	-10.4889
▁continue	-10.4889
▁invention	-10.4889
▁monarch	-10.4889
▁neighbour	-10.4889
▁pronounce	-10.4889
▁wolf	-10.4889
▁quench	-10.4889
▁combat	-10.4889
▁gather	-10.4889
▁visage	-10.4889
▁farther	-10.489
▁palm	-10.489
▁infant	-10.489
▁haunt	-10.4891
▁unhappy	-10.4891
▁staff	-10.4892
▁Priam	-10.4892
▁Neither	-10.4892
IN	-10.4892
▁bread	-10.4892
▁falsehood	-10.4894
▁cozen	-10.4899
▁starve	-10.49
▁blessèd	-10.4904
ood	-10.4907
▁careful	-10.4926
▁jealousy	-10.493
▁stern	-10.4936
▁blown	-10.4955
▁gap	-10.4965
”—	-10.5021
ides	-10.5053
▁sli	-10.5072
▁deceive	-10.5114
▁surely	-10.5116
▁delivered	-10.5117
body	-10.5148
Would	-10.5148
▁robe	-10.5163
▁pit	-10.5166
▁unkind	-10.5196
▁prosper	-10.5198
▁Cleopatra	-10.5202
▁Francis	-10.5202
▁Friar	-10.5202
▁Grecian	-10.5202
▁Julia	-10.5202
▁Murder	-10.5202
▁creep	-10.5202
▁design	-10.5202
▁disguise	-10.5202
▁exchange	-10.5202
▁liberal	-10.5202
▁miracle	-10.5202
▁phrase	-10.5202
▁pitiful	-10.5202
▁satisfaction	-10.5202
▁siege	-10.5202
▁wrest	-10.5202
▁Rather	-10.5202
▁conquest	-10.5202
▁chair	-10.5202
▁climb	-10.5202
▁limit	-10.5202
▁absent	-10.5202
▁choler	-10.5202
▁miserable	-10.5202
▁river	-10.5202
▁contain	-10.5202
▁yellow	-10.5202
▁daily	-10.5202
▁riot	-10.5202
▁article	-10.5202
▁wot	-10.5202
▁blast	-10.5202
▁gild	-10.5202
▁whipped	-10.5202
▁thorn	-10.5202
▁conference	-10.5202
▁redress	-10.5204
▁south	-10.5204
▁mask	-10.5204
▁oak	-10.5204
▁wipe	-10.521
▁gait	-10.5216
▁front	-10.5222
▁Mis	-10.5224
soever	-10.5236
▁mate	-10.5238
▁yond	-10.5245
▁thereof	-10.5259
▁lusty	-10.5261
▁bore	-10.5304
▁hie	-10.5316
▁bravely	-10.5338
eech	-10.5351
▁wishes	-10.536
▁feeling	-10.5381
▁dame	-10.5386
eft	-10.5387
other	-10.5423
there	-10.5431
blood	-10.547
count	-10.5471
Did	-10.5479
▁protect	-10.5516
▁instruct	-10.5519
▁loyal	-10.5522
▁Baptista	-10.5524
▁Britain	-10.5524
▁Laertes	-10.5524
▁Malvolio	-10.5524
▁Westmoreland	-10.5524
▁Worthy	-10.5524
▁absolute	-10.5524
▁cloak	-10.5524
▁flourish	-10.5524
▁peevish	-10.5524
▁preparation	-10.5524
▁recompense	-10.5524
▁remorse	-10.5524
▁saucy	-10.5524
▁senators	-10.5524
▁Lewis	-10.5524
▁branch	-10.5524
▁famous	-10.5524
▁petition	-10.5524
▁petty	-10.5524
▁Wales	-10.5524
▁pawn	-10.5524
▁dukedom	-10.5524
▁written	-10.5524
▁also	-10.5525
▁arrest	-10.5525
▁Ireland	-10.5525
▁detest	-10.5525
▁everything	-10.5525
▁flint	-10.5525
▁caught	-10.5526
▁Gaunt	-10.5526
▁cell	-10.5527
▁compound	-10.5527
▁Italy	-10.5528
▁Much	-10.5528
▁helm	-10.5529
▁grew	-10.553
▁exile	-10.5531
▁pinch	-10.5532
▁clothes	-10.5532
▁kindred	-10.5536
▁behavior	-10.5542
▁brag	-10.5552
▁reach	-10.5553
▁share	-10.5553
▁needful	-10.5556
▁Bless	-10.5564
▁trim	-10.5568
▁goose	-10.5572
▁rub	-10.5594
aunt	-10.5599
ez	-10.56
▁aboard	-10.5616
▁drowned	-10.5649
▁wounded	-10.567
▁ruled	-10.5671
gate	-10.5713
▁shoulders	-10.5752
▁spit	-10.5799
gone	-10.5803
gentle	-10.5804
▁ni	-10.5825
upon	-10.5834
▁Gentle	-10.5856
▁Coriolanus	-10.5858
▁Douglas	-10.5858
▁Naples	-10.5858
▁Posthumus	-10.5858
▁Slender	-10.5858
▁afeard	-10.5858
▁confusion	-10.5858
▁delicate	-10.5858
▁destroy	-10.5858
▁fifty	-10.5858
▁grievous	-10.5858
▁handkerchief	-10.5858
▁increase	-10.5858
▁injury	-10.5858
▁smiling	-10.5858
▁stubborn	-10.5858
▁Monsieur	-10.5858
▁crime	-10.5858
▁spark	-10.5858
▁Isabel	-10.5858
▁Turk	-10.5858
▁Cousin	-10.5858
▁ocean	-10.5858
▁pierce	-10.5858
▁Proceed	-10.5858
▁burst	-10.5858
shire	-10.5858
▁deaf	-10.5858
▁wedding	-10.5858
▁perhaps	-10.5859
▁cord	-10.586
▁addition	-10.586
▁shade	-10.5861
▁couch	-10.5864
▁torch	-10.5864
▁escape	-10.5864
▁invite	-10.5865
▁easily	-10.5869
▁beget	-10.5874
▁began	-10.5881
▁youthful	-10.5897
▁Again	-10.5901
▁date	-10.5908
▁thrown	-10.594
▁according	-10.594
▁possessed	-10.5941
most	-10.5942
▁greeting	-10.5949
▁hole	-10.5962
▁cave	-10.5995
▁buck	-10.6032
▁lately	-10.6035
▁dim	-10.6054
▁je	-10.6057
▁Seek	-10.6098
off	-10.6112
greed	-10.6128
▁remove	-10.6132
J	-10.6148
Till	-10.6159
▁bit	-10.617
▁victor	-10.6179
▁Hav	-10.6188
▁Leonato	-10.6202
▁Roderigo	-10.6202
▁Villain	-10.6202
▁ambassador	-10.6202
▁audience	-10.6202
▁perjured	-10.6202
▁requite	-10.6202
▁sacrifice	-10.6202
▁satisfy	-10.6202
▁sleeve	-10.6202
▁warrior	-10.6202
▁overthrow	-10.6202
▁conceal	-10.6202
▁oracle	-10.6202
▁serious	-10.6203
▁decree	-10.6203
▁cherish	-10.6203
▁current	-10.6203
▁fleet	-10.6203
▁Welsh	-10.6203
▁moral	-10.6203
▁lift	-10.6203
▁crest	-10.6203
▁canker	-10.6204
▁control	-10.6204
▁blot	-10.6204
▁candle	-10.6205
▁flout	-10.6206
▁liking	-10.6207
US	-10.6207
▁Making	-10.6207
▁wheel	-10.6207
▁price	-10.6208
▁attain	-10.6209
▁Hum	-10.6209
▁hound	-10.621
abble	-10.621
▁wail	-10.621
▁wept	-10.6211
▁direction	-10.6212
▁purge	-10.6216
▁interest	-10.6221
▁fever	-10.6222
▁rouse	-10.6223
▁Run	-10.6225
▁chap	-10.6226
▁skin	-10.6234
▁Arm	-10.6236
▁haply	-10.6237
▁appointed	-10.6251
▁score	-10.6252
▁hail	-10.6253
▁rust	-10.6263
Aside	-10.629
▁Old	-10.6307
duce	-10.6316
stern	-10.6423
▁resolve	-10.6489
claim	-10.6503
Upon	-10.6506
Some	-10.6524
▁Ye	-10.6532
▁Hortensio	-10.656
▁Oxford	-10.656
▁Patience	-10.656
▁Revenge	-10.656
▁Signor	-10.656
▁achieve	-10.656
▁banquet	-10.656
▁foreign	-10.656
▁giddy	-10.656
▁intelligence	-10.656
▁obedient	-10.656
▁prophet	-10.656
▁succeed	-10.656
▁surfeit	-10.656
▁terrible	-10.656
▁varlet	-10.656
▁villany	-10.656
▁wrinkle	-10.656
▁Milan	-10.656
▁Mowbray	-10.656
▁deceit	-10.656
▁couple	-10.656
▁ornament	-10.656
▁gently	-10.656
▁venom	-10.656
▁freedom	-10.656
▁brawl	-10.656
▁bank	-10.656
basket	-10.656
▁corse	-10.656
▁strew	-10.656
▁Down	-10.656
▁level	-10.6561
▁slay	-10.6562
▁scope	-10.6562
▁instance	-10.6562
▁Goths	-10.6564
▁government	-10.6565
▁fret	-10.6565
▁taking	-10.6566
▁rod	-10.6566
▁forsake	-10.6566
▁restrain	-10.6566
▁Lead	-10.6567
▁Swear	-10.6567
▁armour	-10.657
▁load	-10.6572
▁proportion	-10.6573
ounce	-10.6573
▁laughter	-10.6575
▁sufferance	-10.6575
▁Fall	-10.6576
▁stale	-10.6597
▁manhood	-10.66
▁spurn	-10.66
poke	-10.661
▁removed	-10.6634
lice	-10.6641
ER	-10.6642
▁Anon	-10.6651
uous	-10.6658
stone	-10.6675
bove	-10.6811
Look	-10.6879
Hath	-10.6881
bility	-10.6906
▁threat	-10.6921
▁fact	-10.6926
▁Bohemia	-10.693
▁Padua	-10.693
▁Winchester	-10.693
▁apprehend	-10.693
▁carriage	-10.693
▁ceremony	-10.693
▁extremity	-10.693
▁imagination	-10.693
▁lodging	-10.693
▁nimble	-10.693
▁resolution	-10.693
▁seldom	-10.693
▁shield	-10.693
▁slumber	-10.693
▁steep	-10.693
▁strumpet	-10.693
▁suspicion	-10.693
▁Apollo	-10.693
▁grandsire	-10.693
▁immortal	-10.693
▁spread	-10.693
▁Return	-10.693
▁space	-10.693
▁withdraw	-10.693
▁shook	-10.693
▁Fool	-10.693
▁Else	-10.693
▁lark	-10.693
▁clerk	-10.693
▁steed	-10.693
▁supply	-10.693
▁bush	-10.693
▁clean	-10.693
▁Something	-10.693
▁Scotland	-10.693
▁spy	-10.693
▁hostess	-10.6931
▁jade	-10.6931
▁forswear	-10.6932
▁commonwealth	-10.6933
▁mettle	-10.6935
▁rack	-10.694
▁drew	-10.694
▁halt	-10.6948
▁Him	-10.695
▁henceforth	-10.6952
▁lent	-10.6957
▁vent	-10.6961
▁Noble	-10.6972
▁metal	-10.6977
▁err	-10.6989
▁aunt	-10.6999
▁dire	-10.7001
▁coin	-10.7005
here	-10.7183
▁offender	-10.7184
ecu	-10.72
how	-10.7209
▁author	-10.7312
▁Athenian	-10.7315
▁Pisanio	-10.7315
▁burthen	-10.7315
▁distemper	-10.7315
▁divorce	-10.7315
▁medicine	-10.7315
▁ravish	-10.7315
▁rejoice	-10.7315
▁scruple	-10.7315
▁split	-10.7315
▁treacherous	-10.7315
▁unjust	-10.7315
▁vault	-10.7315
▁vulgar	-10.7315
▁Horatio	-10.7315
▁Tamora	-10.7315
▁Worship	-10.7315
▁assurance	-10.7315
▁perchance	-10.7315
▁surprise	-10.7315
▁eldest	-10.7315
▁peasant	-10.7315
▁rebellion	-10.7315
▁Biron	-10.7315
▁Fetch	-10.7315
▁bottle	-10.7315
▁repose	-10.7315
▁potent	-10.7315
▁Casca	-10.7315
▁calf	-10.7315
▁busy	-10.7315
happily	-10.7315
▁choke	-10.7315
▁Scot	-10.7317
▁signify	-10.7317
▁opposite	-10.7317
▁linger	-10.7319
▁bidding	-10.7319
▁Dian	-10.7319
▁arch	-10.7322
▁faction	-10.7322
▁sub	-10.7323
▁Cade	-10.7323
▁swain	-10.7328
▁woeful	-10.7341
▁doubtful	-10.7348
▁tower	-10.7358
▁defy	-10.7364
▁bait	-10.7374
▁adventure	-10.7387
▁test	-10.7474
mission	-10.7485
▁smoke	-10.7511
▁dismiss	-10.7547
▁rot	-10.7656
woman	-10.7657
▁appoint	-10.7659
score	-10.7663
Make	-10.7667
know	-10.7675
▁complain	-10.7678
▁accomp	-10.7715
▁Banquo	-10.7715
▁Marina	-10.7715
▁Portia	-10.7715
▁Windsor	-10.7715
▁arrived	-10.7715
▁descend	-10.7715
▁imagine	-10.7715
▁multitude	-10.7715
▁rapier	-10.7715
▁trunk	-10.7715
▁wreck	-10.7715
▁yesterday	-10.7715
▁Cyprus	-10.7715
▁Orlando	-10.7715
▁Silence	-10.7715
▁tribute	-10.7715
▁Answer	-10.7715
▁imperial	-10.7715
▁relieve	-10.7715
▁scatter	-10.7715
▁wore	-10.7715
▁society	-10.7715
▁check	-10.7715
▁Awake	-10.7715
▁Hugh	-10.7715
▁beheld	-10.7715
▁Honor	-10.7715
▁region	-10.7715
▁derive	-10.7715
▁camp	-10.7715
▁keen	-10.7715
▁Aaron	-10.7715
▁stout	-10.7715
▁ugly	-10.7715
▁garland	-10.7716
▁Sicil	-10.7716
▁Kill	-10.7716
▁Gentlemen	-10.7717
▁frank	-10.7717
▁blue	-10.7717
▁grandam	-10.7717
▁defence	-10.7718
▁prosperous	-10.7719
▁compare	-10.7721
▁Sometime	-10.7721
▁hue	-10.7722
▁muse	-10.7722
▁stage	-10.7724
▁profession	-10.7724
▁Lordship	-10.7729
▁brand	-10.7734
▁conqueror	-10.7738
▁cloth	-10.7739
▁wonderful	-10.7741
▁weakness	-10.7744
▁stolen	-10.7747
▁Helena	-10.7748
▁fil	-10.7754
Oh	-10.7756
bout	-10.7759
▁dig	-10.778
▁swa	-10.78
▁Among	-10.7821
▁Hi	-10.7851
▁Pri	-10.7868
▁immediate	-10.7914
fall	-10.8057
certain	-10.8077
horse	-10.8078
speak	-10.8079
maid	-10.8089
▁pine	-10.8092
racious	-10.8129
▁Friend	-10.8131
▁Imogen	-10.8131
▁Katherine	-10.8131
▁Launcelot	-10.8131
▁Lepidus	-10.8131
▁Lorenzo	-10.8131
▁Patroclus	-10.8131
▁Thersites	-10.8131
▁Turio	-10.8131
▁access	-10.8131
▁allegiance	-10.8131
▁altogether	-10.8131
▁destruction	-10.8131
▁discipline	-10.8131
▁everlasting	-10.8131
▁funeral	-10.8131
▁perpetual	-10.8131
▁prologue	-10.8131
▁prompt	-10.8131
▁rebuke	-10.8131
▁scurvy	-10.8131
▁voyage	-10.8131
▁Alban	-10.8131
▁bargain	-10.8131
▁function	-10.8131
▁grove	-10.8131
▁pledge	-10.8131
▁survey	-10.8131
▁subdue	-10.8131
▁Exeter	-10.8131
▁ragged	-10.8131
▁Attend	-10.8131
▁churl	-10.8131
▁push	-10.8131
▁aloud	-10.8132
▁Tyre	-10.8132
▁sex	-10.8132
▁apace	-10.8132
▁Adam	-10.8134
▁loyalty	-10.8134
▁carried	-10.8135
▁hungry	-10.8136
▁straw	-10.8136
▁cannon	-10.8137
▁arise	-10.8137
▁brace	-10.8137
▁betimes	-10.8138
▁Right	-10.8139
▁digest	-10.8139
▁Lend	-10.814
▁patch	-10.8141
▁thread	-10.8143
▁hatch	-10.8144
▁threw	-10.8147
▁cheerful	-10.8148
▁hideous	-10.8149
▁royalty	-10.8151
▁lame	-10.8153
▁Dead	-10.8155
▁Four	-10.8157
▁Lear	-10.8162
▁beams	-10.8164
▁ought	-10.8164
▁lying	-10.8164
▁moan	-10.8165
▁complaint	-10.817
▁directly	-10.8179
same	-10.818
boy	-10.8184
▁thereby	-10.8193
▁livery	-10.8195
▁armor	-10.8196
board	-10.8308
▁Hie	-10.8357
shall	-10.8455
▁amaze	-10.8495
K	-10.8512
hanging	-10.8512
father	-10.8512
work	-10.8512
wife	-10.8513
prove	-10.8513
post	-10.8523
▁Davy	-10.8566
▁Octavia	-10.8566
▁Orleans	-10.8566
▁Stanley	-10.8566
▁accent	-10.8566
▁cudgel	-10.8566
▁expedition	-10.8566
▁hinder	-10.8566
▁injuries	-10.8566
▁invisible	-10.8566
▁poverty	-10.8566
▁qualities	-10.8566
▁sceptre	-10.8566
▁scholar	-10.8566
▁sensible	-10.8566
▁suffice	-10.8566
▁treachery	-10.8566
▁vassal	-10.8566
▁afternoon	-10.8566
▁narrow	-10.8566
▁profane	-10.8566
▁revenue	-10.8566
▁snatch	-10.8566
▁stead	-10.8566
▁deputy	-10.8566
▁process	-10.8566
▁thirty	-10.8566
▁devour	-10.8566
▁shout	-10.8566
▁feign	-10.8566
▁strict	-10.8566
▁parley	-10.8566
▁frost	-10.8566
▁egg	-10.8566
▁apparent	-10.8566
▁incline	-10.8566
transform	-10.8566
▁nourish	-10.8566
▁forehead	-10.8566
▁coast	-10.8567
▁outrage	-10.8567
▁alack	-10.8567
▁Methought	-10.8568
▁feeble	-10.8568
▁impress	-10.8571
▁jack	-10.8571
▁hire	-10.8572
▁virginity	-10.8573
▁expectation	-10.8576
▁cook	-10.8579
▁Diana	-10.858
▁sovereignty	-10.858
▁Thine	-10.8583
▁begun	-10.8583
▁tax	-10.8583
▁Gui	-10.8585
▁drunken	-10.8591
▁senseless	-10.8595
▁Stoo	-10.867
Item	-10.8682
▁whit	-10.8691
▁actor	-10.8728
▁rib	-10.8746
▁Tro	-10.8876
piece	-10.8967
friend	-10.8967
wind	-10.8969
Yet	-10.8973
maker	-10.8976
Fro	-10.8983
good	-10.8993
rank	-10.9006
▁quo	-10.9013
arried	-10.9019
▁AEneas	-10.9021
▁Apemantus	-10.9021
▁Catesby	-10.9021
▁Charmian	-10.9021
▁Neptune	-10.9021
▁accursed	-10.9021
▁bachelor	-10.9021
▁discord	-10.9021
▁entrance	-10.9021
▁estimation	-10.9021
▁exercise	-10.9021
▁exploit	-10.9021
▁innocence	-10.9021
▁interpret	-10.9021
▁liquor	-10.9021
▁mutiny	-10.9021
▁nuptial	-10.9021
▁politic	-10.9021
▁reproach	-10.9021
▁semblance	-10.9021
▁throng	-10.9021
▁Receive	-10.9021
▁blank	-10.9021
▁burial	-10.9021
▁groom	-10.9021
▁admire	-10.9021
▁horror	-10.9021
▁piteous	-10.9021
▁Deliver	-10.9021
▁clamor	-10.9021
▁Almost	-10.9021
▁merrily	-10.9021
▁cheap	-10.9021
elbow	-10.9021
▁motive	-10.9021
▁miseries	-10.9021
▁tutor	-10.9021
▁fawn	-10.9021
▁penny	-10.9021
▁gallows	-10.9021
▁amorous	-10.9021
▁bowels	-10.9021
▁meddle	-10.9021
▁pleasing	-10.9022
▁resist	-10.9022
▁Open	-10.9023
▁waking	-10.9023
▁prime	-10.9023
▁summon	-10.9023
▁Maria	-10.9024
▁exact	-10.9024
▁dismal	-10.9024
▁partner	-10.9025
▁vouch	-10.9025
▁household	-10.9028
▁evermore	-10.9028
▁punishment	-10.9029
▁employment	-10.9032
▁box	-10.9036
▁Become	-10.9037
▁upright	-10.9047
▁grass	-10.905
▁backward	-10.9052
▁madman	-10.9058
▁High	-10.906
▁grain	-10.9061
▁Cut	-10.9068
vaunt	-10.9195
▁street	-10.9197
▁garment	-10.9208
▁buckle	-10.9251
eaten	-10.929
▁vou	-10.9299
▁stole	-10.9315
▁shin	-10.9317
▁file	-10.9327
▁squ	-10.9352
▁yon	-10.9432
mount	-10.9443
More	-10.9443
Lord	-10.9443
word	-10.9444
Therefore	-10.9444
▁Rich	-10.9495
scribe	-10.9497
▁Alexander	-10.9497
▁Bassianus	-10.9497
▁Cloten	-10.9497
▁Cordelia	-10.9497
▁Greece	-10.9497
▁Grumio	-10.9497
▁Octavius	-10.9497
▁Phoebe	-10.9497
▁Trust	-10.9497
▁acknowledge	-10.9497
▁chastity	-10.9497
▁confident	-10.9497
▁constrain	-10.9497
▁contrive	-10.9497
▁convenient	-10.9497
▁coxcomb	-10.9497
▁division	-10.9497
▁expense	-10.9497
▁experience	-10.9497
▁impediment	-10.9497
▁monsieur	-10.9497
▁notwithstanding	-10.9497
▁presume	-10.9497
▁proclamation	-10.9497
▁prodigal	-10.9497
▁reconcile	-10.9497
▁sphere	-10.9497
▁sufficient	-10.9497
▁trespass	-10.9497
▁election	-10.9497
▁fourteen	-10.9497
▁scratch	-10.9497
▁statue	-10.9497
▁Break	-10.9497
▁Prosper	-10.9497
▁roof	-10.9497
▁scandal	-10.9497
▁eleven	-10.9497
▁enmity	-10.9497
▁captive	-10.9497
▁disperse	-10.9497
▁curtain	-10.9497
▁ballad	-10.9497
▁million	-10.9497
▁parcel	-10.9497
▁courteous	-10.9497
▁Jesu	-10.9497
▁deserving	-10.9497
▁minion	-10.9497
▁tiger	-10.9497
▁Beseech	-10.9497
▁history	-10.9497
grateful	-10.9497
▁Justice	-10.9498
▁steward	-10.9498
▁pull	-10.9498
▁reply	-10.9499
▁Pluck	-10.9499
▁square	-10.9499
▁carries	-10.95
▁flock	-10.9501
▁importune	-10.9501
▁Another	-10.9501
▁horrible	-10.9503
▁cruelty	-10.9504
▁stake	-10.9504
▁likewise	-10.9505
▁unkindness	-10.9506
▁musician	-10.9507
▁infection	-10.9509
▁foil	-10.9513
▁pox	-10.9514
▁Meet	-10.9514
▁governor	-10.9517
▁sap	-10.9518
▁dislike	-10.9522
▁lance	-10.9524
▁wenches	-10.9526
▁lime	-10.9538
▁epi	-10.954
thou	-10.9557
clos	-10.9761
▁undergo	-10.9764
▁carve	-10.981
lab	-10.993
“	-10.9943
Take	-10.9957
wixt	-10.996
See	-10.9964
specially	-10.9982
▁Philip	-10.9997
▁disturb	-10.9997
▁vanquish	-10.9997
▁Antioch	-10.9997
▁Denmark	-10.9997
▁Glendower	-10.9997
▁Gremio	-10.9997
▁Jessica	-10.9997
▁Perchance	-10.9997
▁Rosaline	-10.9997
▁Ulysses	-10.9997
▁Venus	-10.9997
▁assault	-10.9997
▁barbarous	-10.9997
▁diamond	-10.9997
▁female	-10.9997
▁harvest	-10.9997
▁inquire	-10.9997
▁middle	-10.9997
▁necessary	-10.9997
▁parliament	-10.9997
▁perfume	-10.9997
▁salute	-10.9997
▁sauce	-10.9997
▁shirt	-10.9997
▁shroud	-10.9997
▁solicit	-10.9997
▁swagger	-10.9997
▁thrift	-10.9997
▁wrack	-10.9997
▁dishonor	-10.9997
▁feature	-10.9997
▁mischance	-10.9997
▁rheum	-10.9997
▁Juno	-10.9997
▁filthy	-10.9997
▁utmost	-10.9997
▁vanish	-10.9997
▁broad	-10.9997
▁dainty	-10.9997
▁procure	-10.9997
▁Write	-10.9997
▁defeat	-10.9997
▁Eros	-10.9997
▁pillow	-10.9997
▁style	-10.9997
▁giant	-10.9997
▁gossip	-10.9997
▁harmony	-10.9997
▁Nestor	-10.9997
▁Talk	-10.9997
▁coffer	-10.9997
▁attire	-10.9997
▁cram	-10.9997
▁dowry	-10.9997
▁ensue	-10.9997
▁print	-10.9997
▁Use	-10.9997
▁fortunate	-10.9998
▁block	-10.9999
▁defect	-10.9999
▁moder	-11
raft	-11
▁Enough	-11
▁correction	-11
▁errand	-11
▁jot	-11.0004
▁departure	-11.0006
▁losing	-11.0007
▁grim	-11.0007
▁scale	-11.0009
▁ashes	-11.0012
capable	-11.0016
▁bald	-11.0016
▁hangman	-11.0022
▁pipe	-11.0053
▁drie	-11.0085
Faith	-11.0469
Thus	-11.0469
Though	-11.0469
Before	-11.0472
Nay	-11.0479
▁suggest	-11.0523
▁Cawdor	-11.0523
▁Cominius	-11.0523
▁Emilia	-11.0523
▁Excellent	-11.0523
▁Mantua	-11.0523
▁Mercutio	-11.0523
▁Michael	-11.0523
▁Titinius	-11.0523
▁bounteous	-11.0523
▁brethren	-11.0523
▁consequence	-11.0523
▁cradle	-11.0523
▁drift	-11.0523
▁enrich	-11.0523
▁indifferent	-11.0523
▁indirect	-11.0523
▁ingratitude	-11.0523
▁integrity	-11.0523
▁mutual	-11.0523
▁obscure	-11.0523
▁observance	-11.0523
▁obtain	-11.0523
▁persuasion	-11.0523
▁adulter	-11.0523
▁puissan	-11.0523
▁mistook	-11.0523
▁vanity	-11.0523
▁defense	-11.0523
▁famish	-11.0523
▁Verona	-11.0523
▁affright	-11.0523
▁broil	-11.0523
▁Regan	-11.0523
▁member	-11.0523
▁contend	-11.0523
▁pestilen	-11.0523
▁constable	-11.0523
▁moving	-11.0523
larum	-11.0523
▁subscribe	-11.0523
▁Present	-11.0523
▁beware	-11.0523
▁Grey	-11.0524
▁ebb	-11.0524
▁legions	-11.0524
▁gorge	-11.0524
▁convert	-11.0524
▁proverb	-11.0524
▁gib	-11.0524
▁raging	-11.0524
▁vision	-11.0524
▁brass	-11.0525
▁duties	-11.0525
▁vast	-11.0525
▁dart	-11.0525
▁Uncle	-11.0526
▁reproof	-11.0526
▁Beau	-11.0527
▁rope	-11.0529
▁excel	-11.0529
▁swim	-11.0531
▁assail	-11.0532
▁guiltless	-11.0532
▁instruction	-11.0533
▁running	-11.0533
▁Throw	-11.0533
▁grand	-11.0534
▁latter	-11.0534
▁bondage	-11.0535
▁painting	-11.0536
▁lightning	-11.0537
▁Maine	-11.054
▁penance	-11.0541
▁vot	-11.0544
▁Dare	-11.0568
iety	-11.0573
ipping	-11.0612
▁Woo	-11.0746
▁determin	-11.0791
tree	-11.0929
name	-11.1013
joy	-11.1023
please	-11.1025
coming	-11.1026
▁Milford	-11.1079
▁Briton	-11.1079
▁Cromwell	-11.1079
▁Ophelia	-11.1079
▁Pandarus	-11.1079
▁Phoebus	-11.1079
▁Yield	-11.1079
▁accusation	-11.1079
▁appeal	-11.1079
▁champion	-11.1079
▁chronicle	-11.1079
▁coronation	-11.1079
▁destiny	-11.1079
▁excellence	-11.1079
▁fifteen	-11.1079
▁harbour	-11.1079
▁horrid	-11.1079
▁impatience	-11.1079
▁impatient	-11.1079
▁perjury	-11.1079
▁pernicious	-11.1079
▁planet	-11.1079
▁precedent	-11.1079
▁repeat	-11.1079
▁ruffian	-11.1079
▁spectacle	-11.1079
▁sprite	-11.1079
▁sullen	-11.1079
▁superfluous	-11.1079
▁support	-11.1079
▁sustain	-11.1079
▁violence	-11.1079
▁Fulvia	-11.1079
▁dragon	-11.1079
▁sugar	-11.1079
▁cheque	-11.1079
▁complete	-11.1079
▁provost	-11.1079
▁chafe	-11.1079
▁thorough	-11.1079
▁Witness	-11.1079
▁squire	-11.1079
▁extend	-11.1079
▁homage	-11.1079
▁Fenton	-11.1079
Appear	-11.1079
▁leek	-11.1079
▁lungs	-11.1079
▁orchard	-11.1079
▁manifest	-11.1079
▁converse	-11.1079
▁relish	-11.1079
▁tickle	-11.1079
▁mystery	-11.1079
▁bliss	-11.1079
▁peep	-11.1079
▁wring	-11.1079
▁compell	-11.1079
▁ladder	-11.1079
thwart	-11.1079
▁omit	-11.1079
▁heinous	-11.108
▁roll	-11.108
▁divers	-11.108
▁balm	-11.108
▁trod	-11.108
▁ourself	-11.1081
▁loathsome	-11.1081
▁taper	-11.1081
▁pitied	-11.1082
▁repute	-11.1083
▁dower	-11.1087
▁drunkard	-11.1087
▁ample	-11.1087
▁stray	-11.1087
▁mouse	-11.1088
▁debate	-11.1088
▁sober	-11.1089
▁assay	-11.1091
▁Part	-11.1096
▁Wall	-11.1098
▁pope	-11.1117
▁Free	-11.113
▁suppos	-11.1547
yond	-11.1559
▁acquaint	-11.1608
comfort	-11.1613
tide	-11.1631
▁confer	-11.1666
▁buzz	-11.1667
Vouchsafe	-11.1667
▁Ariel	-11.1667
▁Cesario	-11.1667
▁Corioli	-11.1667
▁Happy	-11.1667
▁Messala	-11.1667
▁Paulina	-11.1667
▁Publius	-11.1667
▁Rutland	-11.1667
▁Sebastian	-11.1667
▁Shrewsbury	-11.1667
▁Shylock	-11.1667
▁Stephano	-11.1667
▁Together	-11.1667
▁Vincentio	-11.1667
▁bishop	-11.1667
▁charitable	-11.1667
▁constancy	-11.1667
▁descent	-11.1667
▁disorder	-11.1667
▁drowsy	-11.1667
▁likelihood	-11.1667
▁merciful	-11.1667
▁napkin	-11.1667
▁prophesy	-11.1667
▁scourge	-11.1667
▁shriek	-11.1667
▁stiff	-11.1667
▁stuck	-11.1667
▁substitute	-11.1667
▁enchant	-11.1667
▁profound	-11.1667
▁resign	-11.1667
▁mistrust	-11.1667
▁penitent	-11.1667
▁propose	-11.1667
▁Doctor	-11.1667
▁Fifth	-11.1667
▁Joan	-11.1667
▁Robin	-11.1667
▁finish	-11.1667
▁jump	-11.1667
▁swoon	-11.1667
▁stink	-11.1667
▁April	-11.1667
▁revive	-11.1667
▁leaf	-11.1667
▁deform	-11.1667
▁welkin	-11.1667
▁Content	-11.1667
▁silly	-11.1667
▁False	-11.1667
▁Yonder	-11.1667
▁aloof	-11.1667
▁crop	-11.1667
▁settled	-11.1667
▁lewd	-11.1667
▁mankind	-11.1667
▁forlorn	-11.1667
▁alms	-11.1667
▁magic	-11.1668
▁anchor	-11.1668
▁attach	-11.1668
▁holp	-11.1668
▁Poins	-11.1668
▁parents	-11.1669
▁nut	-11.167
umbling	-11.167
▁hatred	-11.167
▁axe	-11.167
▁description	-11.1671
▁beginning	-11.1672
▁marble	-11.1675
▁ache	-11.1721
▁chop	-11.1806
Gain	-11.1876
east	-11.189
ccording	-11.198
luck	-11.2236
charge	-11.2236
Master	-11.2238
Tell	-11.2239
▁nigh	-11.2255
fair	-11.2257
▁Barnardine	-11.2292
▁Duncan	-11.2292
▁Gratiano	-11.2292
▁Hermione	-11.2292
▁Hotspur	-11.2292
▁Julius	-11.2292
▁Tarsus	-11.2292
▁Thursday	-11.2292
▁Trinculo	-11.2292
▁apprehension	-11.2292
▁blossom	-11.2292
▁breakfast	-11.2292
▁built	-11.2292
▁celestial	-11.2292
▁circle	-11.2292
▁confidence	-11.2292
▁crept	-11.2292
▁crush	-11.2292
▁dancing	-11.2292
▁devotion	-11.2292
▁duchess	-11.2292
▁engaged	-11.2292
▁fountain	-11.2292
▁holiday	-11.2292
▁nymph	-11.2292
▁rival	-11.2292
▁shrink	-11.2292
▁succor	-11.2292
▁tapster	-11.2292
▁transport	-11.2292
▁trembling	-11.2292
▁velvet	-11.2292
▁villanous	-11.2292
▁witchcraft	-11.2292
▁wolves	-11.2292
▁parentage	-11.2292
▁bulk	-11.2292
▁lofty	-11.2292
▁violet	-11.2292
▁dishonest	-11.2292
▁leather	-11.2292
▁period	-11.2292
▁apple	-11.2292
▁road	-11.2292
▁shop	-11.2292
▁Tush	-11.2292
▁quaint	-11.2292
▁Constable	-11.2292
▁rehearse	-11.2292
▁lute	-11.2292
▁German	-11.2292
AND	-11.2292
▁dash	-11.2292
▁mould	-11.2292
envoy	-11.2292
▁Nym	-11.2292
▁Honest	-11.2292
▁distance	-11.2292
▁bereft	-11.2292
▁purple	-11.2292
▁dram	-11.2292
▁pastime	-11.2292
▁consume	-11.2292
▁thirst	-11.2292
▁wedded	-11.2292
▁alliance	-11.2292
▁hawk	-11.2293
▁shelter	-11.2293
▁cull	-11.2293
▁ague	-11.2293
▁Saturnine	-11.2293
▁moiety	-11.2293
▁pilgrimage	-11.2293
umber	-11.2294
▁rising	-11.2294
▁maidenhead	-11.2294
▁foolery	-11.2294
▁produce	-11.2294
▁exclaim	-11.2295
▁imprisonment	-11.2295
▁Shake	-11.2296
lbeit	-11.2296
▁taunt	-11.2297
▁idly	-11.2299
divin	-11.2307
▁peruse	-11.2308
▁hurl	-11.2311
deserv	-11.2488
banishèd	-11.2589
balls	-11.2668
njuri	-11.2721
nned	-11.2755
riving	-11.2897
women	-11.2905
seeming	-11.2905
fire	-11.2923
▁imprison	-11.2955
ascivious	-11.2959
▁Anjou	-11.2959
▁Blunt	-11.2959
▁Canterbury	-11.2959
▁Capulet	-11.2959
▁Christendom	-11.2959
▁Dispatch	-11.2959
▁Except	-11.2959
▁Knock	-11.2959
▁Leonatus	-11.2959
▁Meantime	-11.2959
▁Menenius	-11.2959
▁Mercury	-11.2959
▁Virtue	-11.2959
▁argue	-11.2959
▁bridegroom	-11.2959
▁commodity	-11.2959
▁composition	-11.2959
▁continent	-11.2959
▁continual	-11.2959
▁crutch	-11.2959
▁cuckoo	-11.2959
▁dissemble	-11.2959
▁empire	-11.2959
▁enlarge	-11.2959
▁entire	-11.2959
▁epitaph	-11.2959
▁fertile	-11.2959
▁humility	-11.2959
▁instinct	-11.2959
▁nuncle	-11.2959
▁oblivion	-11.2959
▁pregnant	-11.2959
▁prophecy	-11.2959
▁recreant	-11.2959
▁religion	-11.2959
▁resolute	-11.2959
▁ridiculous	-11.2959
▁smother	-11.2959
▁studied	-11.2959
▁upbraid	-11.2959
▁volume	-11.2959
▁whirl	-11.2959
▁Blood	-11.2959
▁Judas	-11.2959
▁Rugby	-11.2959
▁chastise	-11.2959
▁frantic	-11.2959
▁harlot	-11.2959
▁obsequi	-11.2959
▁shrill	-11.2959
▁statute	-11.2959
▁Black	-11.2959
▁Monmouth	-11.2959
▁Orsino	-11.2959
▁examine	-11.2959
▁fathom	-11.2959
▁stool	-11.2959
▁supplie	-11.2959
▁impeach	-11.2959
▁neigh	-11.2959
▁pattern	-11.2959
▁furious	-11.2959
▁Teach	-11.2959
▁Thrice	-11.2959
▁distinct	-11.2959
▁hush	-11.2959
▁Titan	-11.2959
▁reform	-11.2959
▁resort	-11.2959
▁carrion	-11.2959
▁thumb	-11.2959
▁crab	-11.2959
▁bigger	-11.2959
▁palate	-11.2959
▁Kind	-11.2959
▁regent	-11.2959
▁forgotten	-11.2959
▁grandfather	-11.2959
▁fowl	-11.2959
▁lurk	-11.2959
▁talents	-11.2959
▁arrant	-11.2959
▁impart	-11.2959
▁kite	-11.2959
▁lamp	-11.2959
▁organ	-11.2959
▁notorious	-11.2959
▁mute	-11.2959
journ	-11.2959
▁opportunity	-11.296
▁Topas	-11.2961
▁antic	-11.2961
instead	-11.2962
▁incur	-11.2962
▁quake	-11.2963
▁usurer	-11.2963
vocati	-11.3014
ntique	-11.3026
scription	-11.3231
ribb	-11.3383
▁easi	-11.3392
▁plea	-11.36
cloth	-11.3618
Know	-11.3619
Since	-11.3619
Stand	-11.3619
dispos	-11.3651
▁trot	-11.3667
erhaps	-11.367
▁Just	-11.3672
▁trans	-11.3672
▁Approach	-11.3673
▁Brief	-11.3673
▁Macduff	-11.3673
▁blemish	-11.3673
▁covetous	-11.3673
▁enfranchise	-11.3673
▁languish	-11.3673
▁miscarry	-11.3673
▁publish	-11.3673
▁repeal	-11.3673
▁Alcibiades	-11.3673
▁Antipholus	-11.3673
▁Audrey	-11.3673
▁Helicanus	-11.3673
▁Jaques	-11.3673
▁Nerissa	-11.3673
▁Olivia	-11.3673
▁Polixenes	-11.3673
▁Pomfret	-11.3673
▁Wednesday	-11.3673
▁Worcester	-11.3673
▁abbey	-11.3673
▁admirable	-11.3673
▁applause	-11.3673
▁arbitr	-11.3673
▁assembly	-11.3673
▁beautiful	-11.3673
▁casket	-11.3673
▁cheese	-11.3673
▁comparison	-11.3673
▁compliment	-11.3673
▁confederate	-11.3673
▁conspire	-11.3673
▁corporal	-11.3673
▁dignities	-11.3673
▁embassy	-11.3673
▁girdle	-11.3673
▁lunatic	-11.3673
▁merriment	-11.3673
▁nativity	-11.3673
▁philosophy	-11.3673
▁privy	-11.3673
▁project	-11.3673
▁resemble	-11.3673
▁secrecy	-11.3673
▁serving	-11.3673
▁skull	-11.3673
▁sparrow	-11.3673
▁syllable	-11.3673
▁transgress	-11.3673
▁tumble	-11.3673
▁vizard	-11.3673
▁Prepare	-11.3673
▁banner	-11.3673
▁besiege	-11.3673
▁distraction	-11.3673
▁eunuch	-11.3673
▁happier	-11.3673
▁insolence	-11.3673
▁Philippi	-11.3673
▁gentry	-11.3673
▁jerkin	-11.3673
▁slack	-11.3673
▁coffin	-11.3673
▁treble	-11.3673
▁engine	-11.3673
▁Walter	-11.3673
▁gazing	-11.3673
▁pursuit	-11.3673
▁consort	-11.3673
▁gnaw	-11.3673
▁Name	-11.3673
▁shaft	-11.3673
▁popul	-11.3673
▁beneath	-11.3673
▁truce	-11.3673
▁tardy	-11.3673
▁Earth	-11.3673
▁apply	-11.3673
erwhelm	-11.3673
▁Gallia	-11.3673
▁Safe	-11.3673
▁cheat	-11.3673
▁gilt	-11.3673
▁farthest	-11.3673
▁Walk	-11.3673
▁relent	-11.3673
▁presage	-11.3673
▁Doubt	-11.3673
▁altar	-11.3674
▁Haply	-11.3674
▁copy	-11.3674
▁gust	-11.3674
▁blade	-11.3674
▁Gower	-11.3674
▁Shame	-11.3674
▁array	-11.3674
▁guts	-11.3674
▁spider	-11.3675
▁patron	-11.37
broth	-11.3703
usual	-11.3746
▁tilt	-11.3746
▁wren	-11.3751
grav	-11.3991
▁affair	-11.4143
mouth	-11.4388
field	-11.4388
Must	-11.4388
parent	-11.4392
robe	-11.4392
nceforth	-11.4398
▁Confess	-11.4442
sequent	-11.4442
▁Angiers	-11.4442
▁Archbishop	-11.4442
▁Ephesus	-11.4442
▁Hecuba	-11.4442
▁Pucelle	-11.4442
▁Rousillon	-11.4442
▁abundance	-11.4442
▁bankrupt	-11.4442
▁brazen	-11.4442
▁chimney	-11.4442
▁consecrate	-11.4442
▁corpse	-11.4442
▁dedicate	-11.4442
▁dissolve	-11.4442
▁endeavor	-11.4442
▁eyelids	-11.4442
▁fantasy	-11.4442
▁fulfill	-11.4442
▁generation	-11.4442
▁greyhound	-11.4442
▁imitate	-11.4442
▁imperfect	-11.4442
▁malicious	-11.4442
▁monkey	-11.4442
▁negligence	-11.4442
▁peremptory	-11.4442
▁principal	-11.4442
▁quantity	-11.4442
▁receipt	-11.4442
▁savor	-11.4442
▁scroll	-11.4442
▁shilling	-11.4442
▁simplicity	-11.4442
▁spacious	-11.4442
▁stratagem	-11.4442
▁stumble	-11.4442
▁testimony	-11.4442
▁travail	-11.4442
▁twelvemonth	-11.4442
▁tyrannous	-11.4442
▁underneath	-11.4442
▁universal	-11.4442
▁unruly	-11.4442
▁Cornwall	-11.4442
▁Strange	-11.4442
▁adverse	-11.4442
▁clamour	-11.4442
▁diadem	-11.4442
▁infamy	-11.4442
▁plenty	-11.4442
▁precise	-11.4442
▁progress	-11.4442
▁pupil	-11.4442
▁strangle	-11.4442
▁translate	-11.4442
▁Direct	-11.4442
▁Dorset	-11.4442
▁gravity	-11.4442
▁ignobl	-11.4442
▁suborn	-11.4442
▁capital	-11.4442
▁curtsy	-11.4442
▁relief	-11.4442
▁snake	-11.4442
▁Happi	-11.4442
▁bequeath	-11.4442
▁excess	-11.4442
▁Costard	-11.4442
▁Remain	-11.4442
▁Women	-11.4442
▁tavern	-11.4442
▁Exceed	-11.4442
▁infirmity	-11.4442
▁Italian	-11.4442
▁avouch	-11.4442
▁nettle	-11.4442
▁dismay	-11.4442
▁Foul	-11.4442
▁kinsmen	-11.4442
▁truant	-11.4442
▁plate	-11.4442
▁clown	-11.4442
▁eager	-11.4442
stablish	-11.4442
▁unwilling	-11.4442
▁mangled	-11.4442
▁model	-11.4442
▁Arise	-11.4442
▁gloss	-11.4442
▁Thyself	-11.4442
▁belief	-11.4443
▁tragic	-11.4443
▁unseen	-11.4443
▁Begin	-11.4443
▁rape	-11.4443
monger	-11.4443
▁ashore	-11.4443
▁consist	-11.4443
junct	-11.4444
▁denies	-11.4445
▁reek	-11.445
while	-11.5102
front	-11.5139
wise	-11.5203
Keep	-11.5221
possess	-11.5221
justice	-11.5221
Speak	-11.5221
guard	-11.5222
Caesar	-11.5222
tongue	-11.5222
▁correct	-11.527
▁pilgrim	-11.5273
sumption	-11.5275
▁Stafford	-11.5275
▁caitiff	-11.5275
▁eclipse	-11.5275
▁scepter	-11.5275
▁Antenor	-11.5275
▁Biondello	-11.5275
▁Brabant	-11.5275
▁Cardinal	-11.5275
▁Dumain	-11.5275
▁Eleanor	-11.5275
▁Florence	-11.5275
▁Fluellen	-11.5275
▁Fortinbras	-11.5275
▁Ganymede	-11.5275
▁Menelaus	-11.5275
▁Parolles	-11.5275
▁Renown	-11.5275
▁Worthies	-11.5275
▁abject	-11.5275
▁acquit	-11.5275
▁admiration	-11.5275
▁beauties	-11.5275
▁braggart	-11.5275
▁chariot	-11.5275
▁chivalry	-11.5275
▁christen	-11.5275
▁commence	-11.5275
▁contemplation	-11.5275
▁contradict	-11.5275
▁crimson	-11.5275
▁cushion	-11.5275
▁discern	-11.5275
▁disloyal	-11.5275
▁dispraise	-11.5275
▁dunghill	-11.5275
▁ecstasy	-11.5275
▁eloquence	-11.5275
▁endeavour	-11.5275
▁engender	-11.5275
▁frenzy	-11.5275
▁froze	-11.5275
▁grievance	-11.5275
▁hammer	-11.5275
▁infancy	-11.5275
▁influence	-11.5275
▁inhabit	-11.5275
▁interrupt	-11.5275
▁misfortune	-11.5275
▁mutton	-11.5275
▁niggard	-11.5275
▁ordinary	-11.5275
▁patricians	-11.5275
▁peradventure	-11.5275
▁pigeons	-11.5275
▁plenteous	-11.5275
▁ruminate	-11.5275
▁sanctuary	-11.5275
▁security	-11.5275
▁studies	-11.5275
▁text	-11.5275
▁traffic	-11.5275
▁yesternight	-11.5275
▁Beaufort	-11.5275
▁Lucio	-11.5275
▁broach	-11.5275
▁compact	-11.5275
▁midwife	-11.5275
▁mirror	-11.5275
▁understood	-11.5275
▁unlawful	-11.5275
▁Cinna	-11.5275
▁fancies	-11.5275
▁nightingale	-11.5275
▁penalty	-11.5275
▁Comfort	-11.5275
▁Himself	-11.5275
▁charter	-11.5275
▁plough	-11.5275
▁churchyard	-11.5275
▁salve	-11.5275
▁trencher	-11.5275
▁Commit	-11.5275
▁enraged	-11.5275
▁future	-11.5275
▁imperious	-11.5275
▁proffer	-11.5275
▁village	-11.5275
▁happen	-11.5275
▁permit	-11.5275
▁levy	-11.5276
▁whelp	-11.5276
▁Crown	-11.5276
▁Grand	-11.5276
construe	-11.5276
▁signior	-11.5276
▁Temp	-11.5276
▁Rise	-11.5276
▁bribe	-11.5276
▁bruise	-11.5276
▁riddle	-11.5276
▁treat	-11.5276
▁wrap	-11.5276
▁gull	-11.5276
▁link	-11.5276
▁Woe	-11.5276
▁Sister	-11.5276
▁demi	-11.5277
▁sonnet	-11.5277
gartered	-11.5277
▁disclose	-11.5277
nonny	-11.5279
▁lease	-11.528
angling	-11.5306
belov	-11.5324
▁Step	-11.5379
favored	-11.5889
proof	-11.6124
After	-11.613
grown	-11.613
While	-11.613
Madam	-11.6131
Stay	-11.6131
▁accord	-11.6135
Giv	-11.6139
shape	-11.6154
▁Saturn	-11.6182
▁Yon	-11.6184
▁abandon	-11.6184
▁applaud	-11.6184
▁desolation	-11.6184
▁intercept	-11.6184
▁murmur	-11.6184
▁slender	-11.6184
▁territories	-11.6184
▁woful	-11.6184
reservation	-11.6185
▁Aumerle	-11.6185
▁Barbary	-11.6185
▁Bishop	-11.6185
▁Bottom	-11.6185
▁Caliban	-11.6185
▁Edgar	-11.6185
▁Eglamour	-11.6185
▁Emperor	-11.6185
▁Faulconbridge	-11.6185
▁Florentine	-11.6185
▁Longaville	-11.6185
▁Mytilene	-11.6185
▁Pyrrhus	-11.6185
▁Reignier	-11.6185
▁Rivers	-11.6185
▁Rowland	-11.6185
▁adversaries	-11.6185
▁advertise	-11.6185
▁archbishop	-11.6185
▁attorney	-11.6185
▁blaze	-11.6185
▁bubble	-11.6185
▁channel	-11.6185
▁conflict	-11.6185
▁conspiracy	-11.6185
▁deceased	-11.6185
▁dissembling	-11.6185
▁emulation	-11.6185
▁entrails	-11.6185
▁evidence	-11.6185
▁exquisite	-11.6185
▁goldsmith	-11.6185
▁idiot	-11.6185
▁inclination	-11.6185
▁inconstant	-11.6185
▁knell	-11.6185
▁lullaby	-11.6185
▁malady	-11.6185
▁mistaking	-11.6185
▁necessities	-11.6185
▁observation	-11.6185
▁orphan	-11.6185
▁philosopher	-11.6185
▁simply	-11.6185
▁slippery	-11.6185
▁smart	-11.6185
▁surmise	-11.6185
▁unfortunate	-11.6185
▁whistle	-11.6185
▁Armado	-11.6185
▁Confound	-11.6185
▁abode	-11.6185
▁companies	-11.6185
▁grudge	-11.6185
▁paragon	-11.6185
▁ruthless	-11.6185
▁aloft	-11.6185
▁sixpence	-11.6185
▁smack	-11.6185
▁submit	-11.6185
▁Hymen	-11.6185
▁Poison	-11.6185
▁Tongue	-11.6185
▁falcon	-11.6185
▁insinuat	-11.6185
▁motley	-11.6185
▁Rouen	-11.6185
▁singular	-11.6185
▁Garter	-11.6185
▁follies	-11.6185
begotten	-11.6185
lubber	-11.6185
▁cabin	-11.6185
▁lazy	-11.6185
▁Smile	-11.6185
▁pilot	-11.6185
▁yeoman	-11.6185
▁balance	-11.6185
▁denial	-11.6185
▁seduce	-11.6185
▁levied	-11.6185
▁strait	-11.6185
▁waft	-11.6185
▁Trip	-11.6185
▁Weigh	-11.6185
▁void	-11.6185
▁Green	-11.6185
praising	-11.6185
roast	-11.6185
▁detect	-11.6186
traight	-11.6186
lavish	-11.6187
ELI	-11.6189
Banish	-11.62
avily	-11.6254
▁Join	-11.6269
▁marshal	-11.6333
Unti	-11.6509
exec	-11.6719
▁Leav	-11.6915
▁promis	-11.7003
giving	-11.713
colour	-11.713
Great	-11.713
cross	-11.713
twenty	-11.7131
Sweet	-11.7131
white	-11.7131
deliver	-11.7131
should	-11.7131
▁commonweal	-11.7177
▁stew	-11.7182
Agrippa	-11.7184
sumptuous	-11.7184
▁Alencon	-11.7184
▁Alexas	-11.7184
▁Blanch	-11.7184
▁Cimber	-11.7184
▁Cymbeline	-11.7184
▁Despair	-11.7184
▁Fidele	-11.7184
▁Gertrude	-11.7184
▁Goneril	-11.7184
▁Griffith	-11.7184
▁Illyria	-11.7184
▁Jaquenetta	-11.7184
▁Jerusalem	-11.7184
▁Katharine	-11.7184
▁Kneel	-11.7184
▁Lucetta	-11.7184
▁Philomel	-11.7184
▁Seigneur	-11.7184
▁Surrey	-11.7184
▁Thaisa	-11.7184
▁Ventidius	-11.7184
▁Vienna	-11.7184
▁Volscian	-11.7184
▁bewitch	-11.7184
▁boisterous	-11.7184
▁calamity	-11.7184
▁calendar	-11.7184
▁capacity	-11.7184
▁compulsion	-11.7184
▁conversation	-11.7184
▁coronet	-11.7184
▁degenerate	-11.7184
▁diligence	-11.7184
▁distinguish	-11.7184
▁education	-11.7184
▁generous	-11.7184
▁headstrong	-11.7184
▁hymn	-11.7184
▁indignation	-11.7184
▁kitchen	-11.7184
▁knives	-11.7184
▁navy	-11.7184
▁occupation	-11.7184
▁parallel	-11.7184
▁province	-11.7184
▁redemption	-11.7184
▁survive	-11.7184
▁tragedy	-11.7184
▁unquiet	-11.7184
▁voluntary	-11.7184
▁whale	-11.7184
▁wreath	-11.7184
▁wrote	-11.7184
▁Parson	-11.7185
▁defiance	-11.7185
▁display	-11.7185
▁exhibit	-11.7185
▁geese	-11.7185
▁morsel	-11.7185
▁predomina	-11.7185
▁session	-11.7185
Divide	-11.7185
▁froward	-11.7185
▁ingenious	-11.7185
▁madonna	-11.7185
▁moonshine	-11.7185
▁testament	-11.7185
▁trash	-11.7185
▁Marshal	-11.7185
▁Sunday	-11.7185
▁chaff	-11.7185
▁globe	-11.7185
▁smock	-11.7185
▁snuff	-11.7185
▁suppress	-11.7185
▁wilful	-11.7185
▁admittance	-11.7185
▁fickle	-11.7185
▁gesture	-11.7185
è	-11.8226
q	-13.5474
